{
  "version": "1.0",
  "truncation": null,
  "padding": null,
  "added_tokens": [
    {
      "id": 0,
      "content": "<pad>",
      "single_word": false,
      "lstrip": false,
      "rstrip": false,
      "normalized": false,
      "special": true
    },
    {
      "id": 1,
      "content": "</s>",
      "single_word": false,
      "lstrip": false,
      "rstrip": false,
      "normalized": false,
      "special": true
    },
    {
      "id": 2,
      "content": "<unk>",
      "single_word": false,
      "lstrip": false,
      "rstrip": false,
      "normalized": false,
      "special": true
    },
    {
      "id": 32000,
      "content": "<extra_id_0>",
      "single_word": false,
      "lstrip": false,
      "rstrip": false,
      "normalized": false,
      "special": true
    },
    {
      "id": 32001,
      "content": "<extra_id_1>",
      "single_word": false,
      "lstrip": false,
      "rstrip": false,
      "normalized": false,
      "special": true
    },
    {
      "id": 32002,
      "content": "<extra_id_2>",
      "single_word": false,
      "lstrip": false,
      "rstrip": false,
      "normalized": false,
      "special": true
    },
    {
      "id": 32003,
      "content": "<extra_id_3>",
      "single_word": false,
      "lstrip": false,
      "rstrip": false,
      "normalized": false,
      "special": true
    },
    {
      "id": 32004,
      "content": "<extra_id_4>",
      "single_word": false,
      "lstrip": false,
      "rstrip": false,
      "normalized": false,
      "special": true
    },
    {
      "id": 32005,
      "content": "<extra_id_5>",
      "single_word": false,
      "lstrip": false,
      "rstrip": false,
      "normalized": false,
      "special": true
    },
    {
      "id": 32006,
      "content": "<extra_id_6>",
      "single_word": false,
      "lstrip": false,
      "rstrip": false,
      "normalized": false,
      "special": true
    },
    {
      "id": 32007,
      "content": "<extra_id_7>",
      "single_word": false,
      "lstrip": false,
      "rstrip": false,
      "normalized": false,
      "special": true
    },
    {
      "id": 32008,
      "content": "<extra_id_8>",
      "single_word": false,
      "lstrip": false,
      "rstrip": false,
      "normalized": false,
      "special": true
    },
    {
      "id": 32009,
      "content": "<extra_id_9>",
      "single_word": false,
      "lstrip": false,
      "rstrip": false,
      "normalized": false,
      "special": true
    },
    {
      "id": 32010,
      "content": "<extra_id_10>",
      "single_word": false,
      "lstrip": false,
      "rstrip": false,
      "normalized": false,
      "special": true
    },
    {
      "id": 32011,
      "content": "<extra_id_11>",
      "single_word": false,
      "lstrip": false,
      "rstrip": false,
      "normalized": false,
      "special": true
    },
    {
      "id": 32012,
      "content": "<extra_id_12>",
      "single_word": false,
      "lstrip": false,
      "rstrip": false,
      "normalized": false,
      "special": true
    },
    {
      "id": 32013,
      "content": "<extra_id_13>",
      "single_word": false,
      "lstrip": false,
      "rstrip": false,
      "normalized": false,
      "special": true
    },
    {
      "id": 32014,
      "content": "<extra_id_14>",
      "single_word": false,
      "lstrip": false,
      "rstrip": false,
      "normalized": false,
      "special": true
    },
    {
      "id": 32015,
      "content": "<extra_id_15>",
      "single_word": false,
      "lstrip": false,
      "rstrip": false,
      "normalized": false,
      "special": true
    },
    {
      "id": 32016,
      "content": "<extra_id_16>",
      "single_word": false,
      "lstrip": false,
      "rstrip": false,
      "normalized": false,
      "special": true
    },
    {
      "id": 32017,
      "content": "<extra_id_17>",
      "single_word": false,
      "lstrip": false,
      "rstrip": false,
      "normalized": false,
      "special": true
    },
    {
      "id": 32018,
      "content": "<extra_id_18>",
      "single_word": false,
      "lstrip": false,
      "rstrip": false,
      "normalized": false,
      "special": true
    },
    {
      "id": 32019,
      "content": "<extra_id_19>",
      "single_word": false,
      "lstrip": false,
      "rstrip": false,
      "normalized": false,
      "special": true
    },
    {
      "id": 32020,
      "content": "<extra_id_20>",
      "single_word": false,
      "lstrip": false,
      "rstrip": false,
      "normalized": false,
      "special": true
    },
    {
      "id": 32021,
      "content": "<extra_id_21>",
      "single_word": false,
      "lstrip": false,
      "rstrip": false,
      "normalized": false,
      "special": true
    },
    {
      "id": 32022,
      "content": "<extra_id_22>",
      "single_word": false,
      "lstrip": false,
      "rstrip": false,
      "normalized": false,
      "special": true
    },
    {
      "id": 32023,
      "content": "<extra_id_23>",
      "single_word": false,
      "lstrip": false,
      "rstrip": false,
      "normalized": false,
      "special": true
    },
    {
      "id": 32024,
      "content": "<extra_id_24>",
      "single_word": false,
      "lstrip": false,
      "rstrip": false,
      "normalized": false,
      "special": true
    },
    {
      "id": 32025,
      "content": "<extra_id_25>",
      "single_word": false,
      "lstrip": false,
      "rstrip": false,
      "normalized": false,
      "special": true
    },
    {
      "id": 32026,
      "content": "<extra_id_26>",
      "single_word": false,
      "lstrip": false,
      "rstrip": false,
      "normalized": false,
      "special": true
    },
    {
      "id": 32027,
      "content": "<extra_id_27>",
      "single_word": false,
      "lstrip": false,
      "rstrip": false,
      "normalized": false,
      "special": true
    },
    {
      "id": 32028,
      "content": "<extra_id_28>",
      "single_word": false,
      "lstrip": false,
      "rstrip": false,
      "normalized": false,
      "special": true
    },
    {
      "id": 32029,
      "content": "<extra_id_29>",
      "single_word": false,
      "lstrip": false,
      "rstrip": false,
      "normalized": false,
      "special": true
    },
    {
      "id": 32030,
      "content": "<extra_id_30>",
      "single_word": false,
      "lstrip": false,
      "rstrip": false,
      "normalized": false,
      "special": true
    },
    {
      "id": 32031,
      "content": "<extra_id_31>",
      "single_word": false,
      "lstrip": false,
      "rstrip": false,
      "normalized": false,
      "special": true
    },
    {
      "id": 32032,
      "content": "<extra_id_32>",
      "single_word": false,
      "lstrip": false,
      "rstrip": false,
      "normalized": false,
      "special": true
    },
    {
      "id": 32033,
      "content": "<extra_id_33>",
      "single_word": false,
      "lstrip": false,
      "rstrip": false,
      "normalized": false,
      "special": true
    },
    {
      "id": 32034,
      "content": "<extra_id_34>",
      "single_word": false,
      "lstrip": false,
      "rstrip": false,
      "normalized": false,
      "special": true
    },
    {
      "id": 32035,
      "content": "<extra_id_35>",
      "single_word": false,
      "lstrip": false,
      "rstrip": false,
      "normalized": false,
      "special": true
    },
    {
      "id": 32036,
      "content": "<extra_id_36>",
      "single_word": false,
      "lstrip": false,
      "rstrip": false,
      "normalized": false,
      "special": true
    },
    {
      "id": 32037,
      "content": "<extra_id_37>",
      "single_word": false,
      "lstrip": false,
      "rstrip": false,
      "normalized": false,
      "special": true
    },
    {
      "id": 32038,
      "content": "<extra_id_38>",
      "single_word": false,
      "lstrip": false,
      "rstrip": false,
      "normalized": false,
      "special": true
    },
    {
      "id": 32039,
      "content": "<extra_id_39>",
      "single_word": false,
      "lstrip": false,
      "rstrip": false,
      "normalized": false,
      "special": true
    },
    {
      "id": 32040,
      "content": "<extra_id_40>",
      "single_word": false,
      "lstrip": false,
      "rstrip": false,
      "normalized": false,
      "special": true
    },
    {
      "id": 32041,
      "content": "<extra_id_41>",
      "single_word": false,
      "lstrip": false,
      "rstrip": false,
      "normalized": false,
      "special": true
    },
    {
      "id": 32042,
      "content": "<extra_id_42>",
      "single_word": false,
      "lstrip": false,
      "rstrip": false,
      "normalized": false,
      "special": true
    },
    {
      "id": 32043,
      "content": "<extra_id_43>",
      "single_word": false,
      "lstrip": false,
      "rstrip": false,
      "normalized": false,
      "special": true
    },
    {
      "id": 32044,
      "content": "<extra_id_44>",
      "single_word": false,
      "lstrip": false,
      "rstrip": false,
      "normalized": false,
      "special": true
    },
    {
      "id": 32045,
      "content": "<extra_id_45>",
      "single_word": false,
      "lstrip": false,
      "rstrip": false,
      "normalized": false,
      "special": true
    },
    {
      "id": 32046,
      "content": "<extra_id_46>",
      "single_word": false,
      "lstrip": false,
      "rstrip": false,
      "normalized": false,
      "special": true
    },
    {
      "id": 32047,
      "content": "<extra_id_47>",
      "single_word": false,
      "lstrip": false,
      "rstrip": false,
      "normalized": false,
      "special": true
    },
    {
      "id": 32048,
      "content": "<extra_id_48>",
      "single_word": false,
      "lstrip": false,
      "rstrip": false,
      "normalized": false,
      "special": true
    },
    {
      "id": 32049,
      "content": "<extra_id_49>",
      "single_word": false,
      "lstrip": false,
      "rstrip": false,
      "normalized": false,
      "special": true
    },
    {
      "id": 32050,
      "content": "<extra_id_50>",
      "single_word": false,
      "lstrip": false,
      "rstrip": false,
      "normalized": false,
      "special": true
    },
    {
      "id": 32051,
      "content": "<extra_id_51>",
      "single_word": false,
      "lstrip": false,
      "rstrip": false,
      "normalized": false,
      "special": true
    },
    {
      "id": 32052,
      "content": "<extra_id_52>",
      "single_word": false,
      "lstrip": false,
      "rstrip": false,
      "normalized": false,
      "special": true
    },
    {
      "id": 32053,
      "content": "<extra_id_53>",
      "single_word": false,
      "lstrip": false,
      "rstrip": false,
      "normalized": false,
      "special": true
    },
    {
      "id": 32054,
      "content": "<extra_id_54>",
      "single_word": false,
      "lstrip": false,
      "rstrip": false,
      "normalized": false,
      "special": true
    },
    {
      "id": 32055,
      "content": "<extra_id_55>",
      "single_word": false,
      "lstrip": false,
      "rstrip": false,
      "normalized": false,
      "special": true
    },
    {
      "id": 32056,
      "content": "<extra_id_56>",
      "single_word": false,
      "lstrip": false,
      "rstrip": false,
      "normalized": false,
      "special": true
    },
    {
      "id": 32057,
      "content": "<extra_id_57>",
      "single_word": false,
      "lstrip": false,
      "rstrip": false,
      "normalized": false,
      "special": true
    },
    {
      "id": 32058,
      "content": "<extra_id_58>",
      "single_word": false,
      "lstrip": false,
      "rstrip": false,
      "normalized": false,
      "special": true
    },
    {
      "id": 32059,
      "content": "<extra_id_59>",
      "single_word": false,
      "lstrip": false,
      "rstrip": false,
      "normalized": false,
      "special": true
    },
    {
      "id": 32060,
      "content": "<extra_id_60>",
      "single_word": false,
      "lstrip": false,
      "rstrip": false,
      "normalized": false,
      "special": true
    },
    {
      "id": 32061,
      "content": "<extra_id_61>",
      "single_word": false,
      "lstrip": false,
      "rstrip": false,
      "normalized": false,
      "special": true
    },
    {
      "id": 32062,
      "content": "<extra_id_62>",
      "single_word": false,
      "lstrip": false,
      "rstrip": false,
      "normalized": false,
      "special": true
    },
    {
      "id": 32063,
      "content": "<extra_id_63>",
      "single_word": false,
      "lstrip": false,
      "rstrip": false,
      "normalized": false,
      "special": true
    },
    {
      "id": 32064,
      "content": "<extra_id_64>",
      "single_word": false,
      "lstrip": false,
      "rstrip": false,
      "normalized": false,
      "special": true
    },
    {
      "id": 32065,
      "content": "<extra_id_65>",
      "single_word": false,
      "lstrip": false,
      "rstrip": false,
      "normalized": false,
      "special": true
    },
    {
      "id": 32066,
      "content": "<extra_id_66>",
      "single_word": false,
      "lstrip": false,
      "rstrip": false,
      "normalized": false,
      "special": true
    },
    {
      "id": 32067,
      "content": "<extra_id_67>",
      "single_word": false,
      "lstrip": false,
      "rstrip": false,
      "normalized": false,
      "special": true
    },
    {
      "id": 32068,
      "content": "<extra_id_68>",
      "single_word": false,
      "lstrip": false,
      "rstrip": false,
      "normalized": false,
      "special": true
    },
    {
      "id": 32069,
      "content": "<extra_id_69>",
      "single_word": false,
      "lstrip": false,
      "rstrip": false,
      "normalized": false,
      "special": true
    },
    {
      "id": 32070,
      "content": "<extra_id_70>",
      "single_word": false,
      "lstrip": false,
      "rstrip": false,
      "normalized": false,
      "special": true
    },
    {
      "id": 32071,
      "content": "<extra_id_71>",
      "single_word": false,
      "lstrip": false,
      "rstrip": false,
      "normalized": false,
      "special": true
    },
    {
      "id": 32072,
      "content": "<extra_id_72>",
      "single_word": false,
      "lstrip": false,
      "rstrip": false,
      "normalized": false,
      "special": true
    },
    {
      "id": 32073,
      "content": "<extra_id_73>",
      "single_word": false,
      "lstrip": false,
      "rstrip": false,
      "normalized": false,
      "special": true
    },
    {
      "id": 32074,
      "content": "<extra_id_74>",
      "single_word": false,
      "lstrip": false,
      "rstrip": false,
      "normalized": false,
      "special": true
    },
    {
      "id": 32075,
      "content": "<extra_id_75>",
      "single_word": false,
      "lstrip": false,
      "rstrip": false,
      "normalized": false,
      "special": true
    },
    {
      "id": 32076,
      "content": "<extra_id_76>",
      "single_word": false,
      "lstrip": false,
      "rstrip": false,
      "normalized": false,
      "special": true
    },
    {
      "id": 32077,
      "content": "<extra_id_77>",
      "single_word": false,
      "lstrip": false,
      "rstrip": false,
      "normalized": false,
      "special": true
    },
    {
      "id": 32078,
      "content": "<extra_id_78>",
      "single_word": false,
      "lstrip": false,
      "rstrip": false,
      "normalized": false,
      "special": true
    },
    {
      "id": 32079,
      "content": "<extra_id_79>",
      "single_word": false,
      "lstrip": false,
      "rstrip": false,
      "normalized": false,
      "special": true
    },
    {
      "id": 32080,
      "content": "<extra_id_80>",
      "single_word": false,
      "lstrip": false,
      "rstrip": false,
      "normalized": false,
      "special": true
    },
    {
      "id": 32081,
      "content": "<extra_id_81>",
      "single_word": false,
      "lstrip": false,
      "rstrip": false,
      "normalized": false,
      "special": true
    },
    {
      "id": 32082,
      "content": "<extra_id_82>",
      "single_word": false,
      "lstrip": false,
      "rstrip": false,
      "normalized": false,
      "special": true
    },
    {
      "id": 32083,
      "content": "<extra_id_83>",
      "single_word": false,
      "lstrip": false,
      "rstrip": false,
      "normalized": false,
      "special": true
    },
    {
      "id": 32084,
      "content": "<extra_id_84>",
      "single_word": false,
      "lstrip": false,
      "rstrip": false,
      "normalized": false,
      "special": true
    },
    {
      "id": 32085,
      "content": "<extra_id_85>",
      "single_word": false,
      "lstrip": false,
      "rstrip": false,
      "normalized": false,
      "special": true
    },
    {
      "id": 32086,
      "content": "<extra_id_86>",
      "single_word": false,
      "lstrip": false,
      "rstrip": false,
      "normalized": false,
      "special": true
    },
    {
      "id": 32087,
      "content": "<extra_id_87>",
      "single_word": false,
      "lstrip": false,
      "rstrip": false,
      "normalized": false,
      "special": true
    },
    {
      "id": 32088,
      "content": "<extra_id_88>",
      "single_word": false,
      "lstrip": false,
      "rstrip": false,
      "normalized": false,
      "special": true
    },
    {
      "id": 32089,
      "content": "<extra_id_89>",
      "single_word": false,
      "lstrip": false,
      "rstrip": false,
      "normalized": false,
      "special": true
    },
    {
      "id": 32090,
      "content": "<extra_id_90>",
      "single_word": false,
      "lstrip": false,
      "rstrip": false,
      "normalized": false,
      "special": true
    },
    {
      "id": 32091,
      "content": "<extra_id_91>",
      "single_word": false,
      "lstrip": false,
      "rstrip": false,
      "normalized": false,
      "special": true
    },
    {
      "id": 32092,
      "content": "<extra_id_92>",
      "single_word": false,
      "lstrip": false,
      "rstrip": false,
      "normalized": false,
      "special": true
    },
    {
      "id": 32093,
      "content": "<extra_id_93>",
      "single_word": false,
      "lstrip": false,
      "rstrip": false,
      "normalized": false,
      "special": true
    },
    {
      "id": 32094,
      "content": "<extra_id_94>",
      "single_word": false,
      "lstrip": false,
      "rstrip": false,
      "normalized": false,
      "special": true
    },
    {
      "id": 32095,
      "content": "<extra_id_95>",
      "single_word": false,
      "lstrip": false,
      "rstrip": false,
      "normalized": false,
      "special": true
    },
    {
      "id": 32096,
      "content": "<extra_id_96>",
      "single_word": false,
      "lstrip": false,
      "rstrip": false,
      "normalized": false,
      "special": true
    },
    {
      "id": 32097,
      "content": "<extra_id_97>",
      "single_word": false,
      "lstrip": false,
      "rstrip": false,
      "normalized": false,
      "special": true
    },
    {
      "id": 32098,
      "content": "<extra_id_98>",
      "single_word": false,
      "lstrip": false,
      "rstrip": false,
      "normalized": false,
      "special": true
    },
    {
      "id": 32099,
      "content": "<extra_id_99>",
      "single_word": false,
      "lstrip": false,
      "rstrip": false,
      "normalized": false,
      "special": true
    }
  ],
  "normalizer": {
    "type": "Sequence",
    "normalizers": [
      {
        "type": "Nmt"
      },
      {
        "type": "NFKC"
      },
      {
        "type": "Replace",
        "pattern": {
          "Regex": " {2,}"
        },
        "content": " "
      },
      {
        "type": "Lowercase"
      }
    ]
  },
  "pre_tokenizer": {
    "type": "Sequence",
    "pretokenizers": [
      {
        "type": "Metaspace",
        "replacement": "▁",
        "prepend_scheme": "always",
        "split": true
      },
      {
        "type": "Digits",
        "individual_digits": true
      },
      {
        "type": "Punctuation",
        "behavior": "Isolated"
      }
    ]
  },
  "post_processor": {
    "type": "TemplateProcessing",
    "single": [
      {
        "Sequence": {
          "id": "A",
          "type_id": 0
        }
      },
      {
        "SpecialToken": {
          "id": "</s>",
          "type_id": 0
        }
      }
    ],
    "pair": [
      {
        "Sequence": {
          "id": "A",
          "type_id": 0
        }
      },
      {
        "Sequence": {
          "id": "B",
          "type_id": 1
        }
      }
    ],
    "special_tokens": {
      "</s>": {
        "id": "</s>",
        "ids": [
          1
        ],
        "tokens": [
          "</s>"
        ]
      }
    }
  },
  "decoder": {
    "type": "Metaspace",
    "replacement": "▁",
    "prepend_scheme": "always",
    "split": true
  },
  "model": {
    "type": "Unigram",
    "unk_id": 2,
    "vocab": [
      [
        "<pad>",
        0.0
      ],
      [
        "</s>",
        0.0
      ],
      [
        "<unk>",
        0.0
      ],
      [
        "▁",
        -1.934491114346084
      ],
      [
        ".",
        -3.2679199021247705
      ],
      [
        "a",
        -3.269648609132606
      ],
      [
        ",",
        -3.34573762307517
      ],
      [
        "v",
        -4.102557741773907
      ],
      [
        "e",
        -4.246061067938285
      ],
      [
        "u",
        -4.2933129119757965
      ],
      [
        "o",
        -4.420098495459992
      ],
      [
        "s",
        -4.454583074287655
      ],
      [
        "▁na",
        -4.45525154004962
      ],
      [
        "i",
        -4.596491468607468
      ],
      [
        "0",
        -4.605046839614499
      ],
      [
        "▁sa",
        -4.713886146564008
      ],
      [
        "1",
        -4.716893534687035
      ],
      [
        "m",
        -4.7688720798615805
      ],
      [
        "2",
        -4.943400392249384
      ],
      [
        "z",
        -4.950068549967966
      ],
      [
        "y",
        -4.96774392333457
      ],
      [
        "k",
        -4.9883678783580585
      ],
      [
        "▁je",
        -5.013071002696748
      ],
      [
        "l",
        -5.3061249035072
      ],
      [
        "-",
        -5.306715511014154
      ],
      [
        "om",
        -5.369980418977695
      ],
      [
        "t",
        -5.467871011332852
      ],
      [
        "á",
        -5.5758491618330215
      ],
      [
        "▁pre",
        -5.597339431424874
      ],
      [
        ":",
        -5.610777010042749
      ],
      [
        "▁do",
        -5.613389380456287
      ],
      [
        "▁to",
        -5.614039957283566
      ],
      [
        ")",
        -5.615866524657214
      ],
      [
        "3",
        -5.625697534014019
      ],
      [
        "n",
        -5.647730537763367
      ],
      [
        "5",
        -5.654115899719228
      ],
      [
        "d",
        -5.704170991498312
      ],
      [
        "▁aj",
        -5.720611572452354
      ],
      [
        "(",
        -5.747212696912413
      ],
      [
        "▁za",
        -5.760870380471413
      ],
      [
        "mi",
        -5.764723032933146
      ],
      [
        "4",
        -5.768145233804512
      ],
      [
        "▁že",
        -5.791770473446647
      ],
      [
        "▁po",
        -5.791982457286938
      ],
      [
        "ú",
        -5.80802827099293
      ],
      [
        "▁ako",
        -5.823690955511866
      ],
      [
        "í",
        -5.829578467011622
      ],
      [
        "r",
        -5.8349285060802725
      ],
      [
        "ou",
        -5.843153500951141
      ],
      [
        "c",
        -5.864359537235124
      ],
      [
        "9",
        -5.8832391998664555
      ],
      [
        "▁si",
        -5.898352097057902
      ],
      [
        "ť",
        -5.917980689354538
      ],
      [
        "8",
        -5.962867835973807
      ],
      [
        "ej",
        -5.969666214980162
      ],
      [
        "6",
        -5.995166372493598
      ],
      [
        "é",
        -5.997292505764076
      ],
      [
        "p",
        -6.046210175125529
      ],
      [
        "ých",
        -6.052590410758535
      ],
      [
        "7",
        -6.061044755804048
      ],
      [
        "ch",
        -6.140301088688716
      ],
      [
        "▁od",
        -6.168049418137988
      ],
      [
        "▁som",
        -6.184637724502441
      ],
      [
        "▁ne",
        -6.200014840237937
      ],
      [
        "▁pri",
        -6.2208461609174766
      ],
      [
        "ý",
        -6.2385973652898326
      ],
      [
        "ého",
        -6.288232375320884
      ],
      [
        "/",
        -6.288881467251789
      ],
      [
        "▁alebo",
        -6.29474579202447
      ],
      [
        "▁sú",
        -6.3079867687587114
      ],
      [
        "b",
        -6.347070872205341
      ],
      [
        "h",
        -6.35233597591759
      ],
      [
        "▁ale",
        -6.387536358139423
      ],
      [
        "li",
        -6.393627594761622
      ],
      [
        "▁tak",
        -6.424785481278093
      ],
      [
        "▁vy",
        -6.497853745487573
      ],
      [
        "\"",
        -6.4987961511915415
      ],
      [
        "j",
        -6.522740548089878
      ],
      [
        "▁ktoré",
        -6.543479282238977
      ],
      [
        "▁by",
        -6.60722945830824
      ],
      [
        "▁čo",
        -6.607282336851625
      ],
      [
        "te",
        -6.631168302859571
      ],
      [
        "ne",
        -6.6577054519371135
      ],
      [
        "▁už",
        -6.671003146808417
      ],
      [
        "č",
        -6.706504686400436
      ],
      [
        "?",
        -6.74532519031437
      ],
      [
        "▁ak",
        -6.746679621521547
      ],
      [
        "ho",
        -6.801731524877358
      ],
      [
        "š",
        -6.808715882407208
      ],
      [
        "▁vo",
        -6.808909382739143
      ],
      [
        "▁sme",
        -6.838605794216818
      ],
      [
        "▁ktorý",
        -6.845510079779389
      ],
      [
        "“",
        -6.849948001863799
      ],
      [
        "▁len",
        -6.855758075357981
      ],
      [
        "–",
        -6.864093277177442
      ],
      [
        "g",
        -6.87006429855648
      ],
      [
        "na",
        -6.890765589137606
      ],
      [
        "„",
        -6.919873119371363
      ],
      [
        "▁nie",
        -6.93061190842961
      ],
      [
        "▁ich",
        -6.9416958627255525
      ],
      [
        "sk",
        -6.949974271253748
      ],
      [
        "▁aby",
        -6.968553363161844
      ],
      [
        "▁keď",
        -6.997994017046457
      ],
      [
        "f",
        -7.040748460999385
      ],
      [
        "▁či",
        -7.041876410036577
      ],
      [
        "▁má",
        -7.0526784044212185
      ],
      [
        "och",
        -7.059332047444309
      ],
      [
        "!",
        -7.093576318586891
      ],
      [
        "ým",
        -7.099347904046541
      ],
      [
        "▁so",
        -7.105291538122881
      ],
      [
        "x",
        -7.112708877465636
      ],
      [
        "▁zo",
        -7.114413337139702
      ],
      [
        "▁pred",
        -7.1196748746257015
      ],
      [
        "▁jeho",
        -7.1790041689879445
      ],
      [
        "nie",
        -7.185030500693237
      ],
      [
        "▁podľa",
        -7.198488958907015
      ],
      [
        "▁bude",
        -7.214580938354532
      ],
      [
        "né",
        -7.221759602966673
      ],
      [
        "ky",
        -7.227836603263309
      ],
      [
        "ná",
        -7.23975572341439
      ],
      [
        "to",
        -7.249139886546377
      ],
      [
        "▁bol",
        -7.279331484864315
      ],
      [
        "▁veľmi",
        -7.282239497918491
      ],
      [
        "▁viac",
        -7.296486646883372
      ],
      [
        "▁až",
        -7.339564492408078
      ],
      [
        "▁ktorá",
        -7.34054967818328
      ],
      [
        "▁pod",
        -7.377879446707192
      ],
      [
        "▁byť",
        -7.391380589127985
      ],
      [
        "ž",
        -7.394613356887675
      ],
      [
        "ami",
        -7.412544475953563
      ],
      [
        "▁tu",
        -7.414387157136117
      ],
      [
        "▁však",
        -7.436745013362339
      ],
      [
        "▁vám",
        -7.440216579713097
      ],
      [
        "▁bez",
        -7.462101409993844
      ],
      [
        "▁ste",
        -7.483603896042107
      ],
      [
        "▁jej",
        -7.486135419365958
      ],
      [
        "▁ho",
        -7.486358728153812
      ],
      [
        "▁môže",
        -7.487899843606856
      ],
      [
        "▁roku",
        -7.495946316800737
      ],
      [
        "▁ma",
        -7.513025021909847
      ],
      [
        "▁ešte",
        -7.557964377994896
      ],
      [
        "▁ani",
        -7.566999984509954
      ],
      [
        "ách",
        -7.584097415848628
      ],
      [
        "▁no",
        -7.591935603807091
      ],
      [
        "ci",
        -7.59575850999051
      ],
      [
        ";",
        -7.598056058585572
      ],
      [
        "ný",
        -7.598746086323629
      ],
      [
        "▁ja",
        -7.604661426044798
      ],
      [
        "ní",
        -7.610825658236154
      ],
      [
        "▁tento",
        -7.618053781027271
      ],
      [
        "|",
        -7.628651463764335
      ],
      [
        "▁bolo",
        -7.635184664916336
      ],
      [
        "▁medzi",
        -7.645020148920395
      ],
      [
        "▁bola",
        -7.646202038433522
      ],
      [
        "ko",
        -7.648467362380071
      ],
      [
        "▁kde",
        -7.649876739505553
      ],
      [
        "▁môžete",
        -7.666776750458423
      ],
      [
        "nej",
        -7.706652337301827
      ],
      [
        "ných",
        -7.7295291932471635
      ],
      [
        "▁tiež",
        -7.755299440502224
      ],
      [
        "€",
        -7.767310787177916
      ],
      [
        "%",
        -7.76883607440541
      ],
      [
        "▁boli",
        -7.771060679871798
      ],
      [
        "▁ju",
        -7.7899368412581556
      ],
      [
        "ové",
        -7.795582106516331
      ],
      [
        "'",
        -7.797281085186034
      ],
      [
        "▁nás",
        -7.797629893666443
      ],
      [
        "w",
        -7.803708071987787
      ],
      [
        "▁všetky",
        -7.80861258502188
      ],
      [
        "▁roz",
        -7.8213747337454524
      ],
      [
        "▁tým",
        -7.824932080226184
      ],
      [
        "▁vás",
        -7.831707643980216
      ],
      [
        "▁preto",
        -7.845714347240598
      ],
      [
        "ými",
        -7.855464177767519
      ],
      [
        "▁ktorí",
        -7.864455987709633
      ],
      [
        "▁toho",
        -7.874983463139271
      ],
      [
        "▁tom",
        -7.880439155282412
      ],
      [
        "▁potom",
        -7.90531745394105
      ],
      [
        "ová",
        -7.906901536778387
      ],
      [
        "ni",
        -7.927342644541685
      ],
      [
        "▁počas",
        -7.928868594186744
      ],
      [
        "▁majú",
        -7.938692049731737
      ],
      [
        "▁mu",
        -7.955240043649342
      ],
      [
        "ovať",
        -7.957073064645432
      ],
      [
        "▁tam",
        -7.958927896336185
      ],
      [
        "eho",
        -7.960020708840695
      ],
      [
        "uje",
        -7.963918432017632
      ],
      [
        "nia",
        -7.965022601511093
      ],
      [
        "▁eur",
        -7.970515739041366
      ],
      [
        "ím",
        -7.992387945837597
      ],
      [
        "▁všetko",
        -7.994344723348428
      ],
      [
        "osti",
        -7.995085297666309
      ],
      [
        "▁prípade",
        -7.998600508356731
      ],
      [
        "▁mal",
        -8.005228750780407
      ],
      [
        "▁rokov",
        -8.006920777283225
      ],
      [
        "osť",
        -8.007401881865587
      ],
      [
        "po",
        -8.015705755125673
      ],
      [
        "▁nám",
        -8.028279073038027
      ],
      [
        "si",
        -8.030936023260287
      ],
      [
        "ych",
        -8.035322869382814
      ],
      [
        "▁tejto",
        -8.044162371331232
      ],
      [
        "▁svoje",
        -8.060244952168933
      ],
      [
        "▁ľudí",
        -8.075895906042032
      ],
      [
        "ovej",
        -8.077336915735925
      ],
      [
        "jú",
        -8.090444450304691
      ],
      [
        "▁tomu",
        -8.093559164185292
      ],
      [
        "▁de",
        -8.095602191187671
      ],
      [
        "▁iba",
        -8.100072651727542
      ],
      [
        "▁ten",
        -8.101966315750095
      ],
      [
        "ného",
        -8.114213529005603
      ],
      [
        "▁cez",
        -8.121294103886662
      ],
      [
        "▁niečo",
        -8.124277735136276
      ],
      [
        "▁každý",
        -8.131115195421076
      ],
      [
        "ový",
        -8.134544235285334
      ],
      [
        "com",
        -8.134935503787222
      ],
      [
        "ním",
        -8.143231094054292
      ],
      [
        "▁nad",
        -8.152731647382454
      ],
      [
        "▁mali",
        -8.153409698114983
      ],
      [
        "ému",
        -8.163874359258616
      ],
      [
        "▁in",
        -8.164340322035935
      ],
      [
        "▁vďaka",
        -8.173801828500185
      ],
      [
        "▁re",
        -8.175961285622238
      ],
      [
        "▁proti",
        -8.179755059740316
      ],
      [
        "je",
        -8.183982995202943
      ],
      [
        "ach",
        -8.187920302588363
      ],
      [
        "▁teda",
        -8.189511366295289
      ],
      [
        "▁môžu",
        -8.191996047572033
      ],
      [
        "▁budú",
        -8.195367116490807
      ],
      [
        "▁mať",
        -8.196397273441901
      ],
      [
        "▁možno",
        -8.20036916753528
      ],
      [
        "+",
        -8.202258613799739
      ],
      [
        "▁pretože",
        -8.213675863132696
      ],
      [
        "▁tieto",
        -8.213728536378122
      ],
      [
        "ových",
        -8.217766875570492
      ],
      [
        "ovi",
        -8.219402087483505
      ],
      [
        "▁čas",
        -8.22082080778422
      ],
      [
        "▁deň",
        -8.224015885983851
      ],
      [
        "ovanie",
        -8.225705061873636
      ],
      [
        "▁dnes",
        -8.226165306978018
      ],
      [
        "▁rok",
        -8.231740476783292
      ],
      [
        "▁všetkých",
        -8.23181267061444
      ],
      [
        "ujú",
        -8.24278751004627
      ],
      [
        "že",
        -8.245869014524146
      ],
      [
        "▁práve",
        -8.24901666318507
      ],
      [
        "•",
        -8.252152191428411
      ],
      [
        "▁asi",
        -8.265002410762142
      ],
      [
        "_",
        -8.272511405341442
      ],
      [
        "enie",
        -8.274023627508726
      ],
      [
        "do",
        -8.283590539091486
      ],
      [
        "▁život",
        -8.286577016259958
      ],
      [
        "▁teraz",
        -8.2892437734627
      ],
      [
        "▁napríklad",
        -8.290064231140027
      ],
      [
        "▁vždy",
        -8.300713740679521
      ],
      [
        "aj",
        -8.303710906415247
      ],
      [
        "▁možné",
        -8.306837987247773
      ],
      [
        "ľ",
        -8.306851258263613
      ],
      [
        "▁ide",
        -8.320068184669603
      ],
      [
        "▁toto",
        -8.320577857592436
      ],
      [
        "▁ku",
        -8.322023631761994
      ],
      [
        "od",
        -8.325443961633784
      ],
      [
        "▁deti",
        -8.328633677770377
      ],
      [
        "▁veľa",
        -8.334728985213633
      ],
      [
        "nom",
        -8.34201092625419
      ],
      [
        "▁tohto",
        -8.343920534666609
      ],
      [
        "▁jeden",
        -8.363303614085137
      ],
      [
        "▁okrem",
        -8.365229413898485
      ],
      [
        "kov",
        -8.368155526589433
      ],
      [
        "▁spolu",
        -8.372284863936516
      ],
      [
        "▁tomto",
        -8.382399102967728
      ],
      [
        "ing",
        -8.385393263326048
      ],
      [
        "▁stále",
        -8.388000882368313
      ],
      [
        "▁nich",
        -8.388305808287376
      ],
      [
        "▁nič",
        -8.390304636261956
      ],
      [
        "▁tie",
        -8.391993340900582
      ],
      [
        "▁ktorých",
        -8.395025413431123
      ],
      [
        "]",
        -8.397273193922858
      ],
      [
        "▁spoločnosti",
        -8.399811965056278
      ],
      [
        ">",
        -8.407765849681354
      ],
      [
        "[",
        -8.410565593352167
      ],
      [
        "či",
        -8.416968793255123
      ],
      [
        "▁ktorú",
        -8.42614539114398
      ],
      [
        "▁najmä",
        -8.43538241900751
      ],
      [
        "▁takže",
        -8.454836159128032
      ],
      [
        "▁ob",
        -8.458917793673063
      ],
      [
        "▁lebo",
        -8.459072664632702
      ],
      [
        "▁možnosť",
        -8.460122859849086
      ],
      [
        "▁ktorej",
        -8.464806361562314
      ],
      [
        "▁táto",
        -8.48424709015217
      ],
      [
        "­",
        -8.487523831771238
      ],
      [
        "▁svoj",
        -8.494787229187189
      ],
      [
        "▁tri",
        -8.497613282101362
      ],
      [
        "▁dobre",
        -8.500138407163426
      ],
      [
        "▁ďalšie",
        -8.507318292141333
      ],
      [
        "▁sr",
        -8.510280451696055
      ],
      [
        "▁mám",
        -8.512475491535398
      ],
      [
        "▁časti",
        -8.51252915466634
      ],
      [
        "=",
        -8.524144663386972
      ],
      [
        "▁miesto",
        -8.527500936188003
      ],
      [
        "▁oblasti",
        -8.52859049096529
      ],
      [
        "▁informácie",
        -8.533125872238212
      ],
      [
        "▁ľudia",
        -8.545294164772622
      ],
      [
        "▁pár",
        -8.547535702257813
      ],
      [
        "kom",
        -8.549093741136932
      ],
      [
        "▁nové",
        -8.553705190599105
      ],
      [
        "▁ba",
        -8.555947550153443
      ],
      [
        "▁svoju",
        -8.563135977891168
      ],
      [
        "▁spoločnosť",
        -8.567484529102968
      ],
      [
        "*",
        -8.568580070033253
      ],
      [
        "▁musí",
        -8.568688102040776
      ],
      [
        "&",
        -8.575377463448413
      ],
      [
        "▁mala",
        -8.576474234280804
      ],
      [
        "▁iné",
        -8.577162361628352
      ],
      [
        "▁niekoľko",
        -8.58041515019989
      ],
      [
        "▁určite",
        -8.585768544822548
      ],
      [
        "▁slovensku",
        -8.590948759584107
      ],
      [
        "▁týchto",
        -8.600513459355604
      ],
      [
        "▁úplne",
        -8.601867628998628
      ],
      [
        "▁kto",
        -8.606855615676285
      ],
      [
        "▁nielen",
        -8.609455865711434
      ],
      [
        "▁máte",
        -8.621201417420155
      ],
      [
        "▁nachádza",
        -8.621251036630763
      ],
      [
        "▁slovenskej",
        -8.625474036011461
      ],
      [
        "▁my",
        -8.627497640936493
      ],
      [
        "▁ponúka",
        -8.631841035473707
      ],
      [
        "▁práce",
        -8.632530241152724
      ],
      [
        "▁zároveň",
        -8.63990752484881
      ],
      [
        "▁často",
        -8.64104422693609
      ],
      [
        "▁treba",
        -8.644168783373143
      ],
      [
        "▁potrebné",
        -8.648921264963823
      ],
      [
        "▁pro",
        -8.653417158280423
      ],
      [
        "▁časť",
        -8.661061664128358
      ],
      [
        "▁naozaj",
        -8.66369953645959
      ],
      [
        "fi",
        -8.674058417469585
      ],
      [
        "▁dňa",
        -8.677186469748733
      ],
      [
        "#",
        -8.683507547176522
      ],
      [
        "▁zá",
        -8.68573668837707
      ],
      [
        "▁mňa",
        -8.686426994579353
      ],
      [
        "▁veci",
        -8.695976152609205
      ],
      [
        "iek",
        -8.697480324091336
      ],
      [
        "▁prvý",
        -8.699882386945589
      ],
      [
        "ter",
        -8.70145764625348
      ],
      [
        "▁celý",
        -8.7015401765524
      ],
      [
        "ným",
        -8.705316515167606
      ],
      [
        "▁mesta",
        -8.708003768238878
      ],
      [
        "▁človek",
        -8.710887299429249
      ],
      [
        "ového",
        -8.715115967499028
      ],
      [
        "▁svojej",
        -8.718142911788636
      ],
      [
        "skej",
        -8.720316856505415
      ],
      [
        "▁cm",
        -8.721804718038245
      ],
      [
        "▁povedal",
        -8.728948549620789
      ],
      [
        "▁vý",
        -8.730402425668188
      ],
      [
        "▁seba",
        -8.737839413409509
      ],
      [
        "nou",
        -8.73905625377458
      ],
      [
        "▁ďalej",
        -8.739713275037396
      ],
      [
        "▁svojich",
        -8.740806621556613
      ],
      [
        "▁dní",
        -8.742439331609052
      ],
      [
        "▁bratislava",
        -8.743814434364227
      ],
      [
        "▁priamo",
        -8.746564874080672
      ],
      [
        "▁rámci",
        -8.747506854200285
      ],
      [
        "kou",
        -8.750095546850705
      ],
      [
        "▁hlavne",
        -8.751498856539799
      ],
      [
        "▁the",
        -8.752491462388438
      ],
      [
        "▁problém",
        -8.756329172670352
      ],
      [
        "▁túto",
        -8.759780460096469
      ],
      [
        "▁systém",
        -8.762148603166926
      ],
      [
        "▁vaše",
        -8.76390256211073
      ],
      [
        "▁prečo",
        -8.76491755689085
      ],
      [
        "▁co",
        -8.770068952944563
      ],
      [
        "▁ti",
        -8.775387574548095
      ],
      [
        "enia",
        -8.784194595626373
      ],
      [
        "▁cena",
        -8.787375983535357
      ],
      [
        "▁služby",
        -8.789979808905384
      ],
      [
        "▁svojho",
        -8.790203060927015
      ],
      [
        "▁množstvo",
        -8.79265918334145
      ],
      [
        "▁zákona",
        -8.805796058939613
      ],
      [
        "▁ktorého",
        -8.806712095761554
      ],
      [
        "▁máme",
        -8.811641808096567
      ],
      [
        "▁dve",
        -8.815236560054158
      ],
      [
        "▁dá",
        -8.820142907844074
      ],
      [
        "▁nájdete",
        -8.829583935849106
      ],
      [
        "”",
        -8.831316779514877
      ],
      [
        "▁minút",
        -8.831694126493753
      ],
      [
        "▁kedy",
        -8.832477427669922
      ],
      [
        "dať",
        -8.834745239735224
      ],
      [
        "▁než",
        -8.83703009995825
      ],
      [
        "▁okolo",
        -8.838046386252
      ],
      [
        "▁nový",
        -8.840677942186506
      ],
      [
        "nosť",
        -8.841100699761803
      ],
      [
        "men",
        -8.842744982307043
      ],
      [
        "▁základe",
        -8.844695381731306
      ],
      [
        "▁naše",
        -8.851116654753323
      ],
      [
        "keďže",
        -8.851238124340911
      ],
      [
        "cie",
        -8.852163053083922
      ],
      [
        "▁rôznych",
        -8.854496029521918
      ],
      [
        "▁dokonca",
        -8.856436400487022
      ],
      [
        "ver",
        -8.860785724630732
      ],
      [
        "▁výber",
        -8.862708404255224
      ],
      [
        "▁pomocou",
        -8.867613848612413
      ],
      [
        "▁samozrejme",
        -8.86897262273455
      ],
      [
        "▁výkon",
        -8.868985384042118
      ],
      [
        "▁budete",
        -8.870812862172352
      ],
      [
        "▁našej",
        -8.87409017217949
      ],
      [
        "▁takmer",
        -8.879433612060637
      ],
      [
        "▁ceny",
        -8.881780097986418
      ],
      [
        "§",
        -8.882918164408332
      ],
      [
        "▁iných",
        -8.888003727688105
      ],
      [
        "pre",
        -8.889216984233789
      ],
      [
        "oval",
        -8.896244592892176
      ],
      [
        "stav",
        -8.896893282970927
      ],
      [
        "▁údajov",
        -8.900903324987292
      ],
      [
        "▁tých",
        -8.901375237334552
      ],
      [
        "▁života",
        -8.905727862044769
      ],
      [
        "▁našich",
        -8.908830887652801
      ],
      [
        "nik",
        -8.909416731049799
      ],
      [
        "▁rôzne",
        -8.912377874519484
      ],
      [
        "▁predaj",
        -8.915361060216371
      ],
      [
        "▁svete",
        -8.915707410524199
      ],
      [
        "▁chcete",
        -8.917537566562777
      ],
      [
        "▁ktorom",
        -8.91932467352483
      ],
      [
        "▁rovnako",
        -8.919517039603084
      ],
      [
        "▁najlepšie",
        -8.919625628004397
      ],
      [
        "sky",
        -8.919673066147453
      ],
      [
        "▁nikdy",
        -8.922485179186072
      ],
      [
        "▁domov",
        -8.925326493856558
      ],
      [
        "▁patrí",
        -8.926217075344086
      ],
      [
        "▁dva",
        -8.926797796629083
      ],
      [
        "▁mohli",
        -8.928310995133753
      ],
      [
        "▁ktorým",
        -8.929659224323602
      ],
      [
        "▁prostredníctvom",
        -8.932319474452287
      ],
      [
        "▁dvoch",
        -8.932434239301974
      ],
      [
        "ené",
        -8.93430755251714
      ],
      [
        "▁opäť",
        -8.93696309322368
      ],
      [
        "▁jedno",
        -8.937125390332666
      ],
      [
        "▁súčasťou",
        -8.939713453485613
      ],
      [
        "▁spôsob",
        -8.942100046956766
      ],
      [
        "▁skôr",
        -8.943464704759293
      ],
      [
        "ich",
        -8.94740211424032
      ],
      [
        "ňa",
        -8.954790771672746
      ],
      [
        "»",
        -8.956681440803056
      ],
      [
        "▁čase",
        -8.956786623114818
      ],
      [
        "▁vody",
        -8.958309635684346
      ],
      [
        "▁môj",
        -8.960417408041094
      ],
      [
        "▁veľké",
        -8.960942931474916
      ],
      [
        "▁lepšie",
        -8.96248145849785
      ],
      [
        "ovali",
        -8.964427165798867
      ],
      [
        "▁váš",
        -8.967514549269767
      ],
      [
        "krát",
        -8.968361959155223
      ],
      [
        "ované",
        -8.970214214443317
      ],
      [
        "▁niektoré",
        -8.970380247661788
      ],
      [
        "nosti",
        -8.971329105707037
      ],
      [
        "▁prístup",
        -8.975567588208643
      ],
      [
        "▁vôbec",
        -8.976481178029045
      ],
      [
        "cov",
        -8.977192300258215
      ],
      [
        "▁číslo",
        -8.978075838837755
      ],
      [
        "▁školy",
        -8.97869188996357
      ],
      [
        "jte",
        -8.985462219636315
      ],
      [
        "▁napriek",
        -8.990029640782787
      ],
      [
        "▁program",
        -8.991608814718921
      ],
      [
        "ili",
        -8.993220248305175
      ],
      [
        "▁tovaru",
        -8.995208730545334
      ],
      [
        "▁pokiaľ",
        -8.996257449735575
      ],
      [
        "▁inak",
        -8.997976293848229
      ],
      [
        "len",
        -8.999771932689645
      ],
      [
        "▁totiž",
        -9.000760652865974
      ],
      [
        "ľa",
        -9.002483525804143
      ],
      [
        "▁mesto",
        -9.003692759677302
      ],
      [
        "@",
        -9.004313870656459
      ],
      [
        "ň",
        -9.004954480782438
      ],
      [
        "▁údaje",
        -9.007358334102172
      ],
      [
        "▁bo",
        -9.008889252859998
      ],
      [
        "▁obsahuje",
        -9.010477685235417
      ],
      [
        "▁všetci",
        -9.010881820641965
      ],
      [
        "by",
        -9.011978858979097
      ],
      [
        "▁aspoň",
        -9.012332140332973
      ],
      [
        "▁rýchlo",
        -9.01390125675206
      ],
      [
        "man",
        -9.01709838303148
      ],
      [
        "kým",
        -9.019044408835592
      ],
      [
        "ila",
        -9.019779672718377
      ],
      [
        "▁svet",
        -9.023150985622168
      ],
      [
        "▁dosť",
        -9.025057565308558
      ],
      [
        "▁kr",
        -9.025925501693854
      ],
      [
        "▁kon",
        -9.027251894078727
      ],
      [
        "▁tovar",
        -9.028217318434722
      ],
      [
        "▁veľký",
        -9.030090716582798
      ],
      [
        "▁sveta",
        -9.030664930580556
      ],
      [
        "▁raz",
        -9.033025715871949
      ],
      [
        "▁neviem",
        -9.033339147836124
      ],
      [
        "ovania",
        -9.033395957018394
      ],
      [
        "▁jednoducho",
        -9.038961846895454
      ],
      [
        "▁be",
        -9.039311498492804
      ],
      [
        "▁strany",
        -9.040556206973395
      ],
      [
        "▁zatiaľ",
        -9.041613870315205
      ],
      [
        "raz",
        -9.051606413657227
      ],
      [
        "▁zákon",
        -9.05238501385879
      ],
      [
        "▁sebe",
        -9.053796717415244
      ],
      [
        "▁počet",
        -9.057840352181955
      ],
      [
        "▁republiky",
        -9.058059550308553
      ],
      [
        "▁slovenska",
        -9.060662606821644
      ],
      [
        "▁hovorí",
        -9.06133948704359
      ],
      [
        "▁pocit",
        -9.062132953356228
      ],
      [
        "▁tá",
        -9.06254787867147
      ],
      [
        "▁slovensko",
        -9.064249184304138
      ],
      [
        "▁mieste",
        -9.066996002748992
      ],
      [
        "ova",
        -9.068382772478
      ],
      [
        "▁ďalších",
        -9.070147922717194
      ],
      [
        "▁niekedy",
        -9.071868638977206
      ],
      [
        "▁nevy",
        -9.072160457497397
      ],
      [
        "▁nemá",
        -9.075949847233783
      ],
      [
        "môžeme",
        -9.076666327575516
      ],
      [
        "▁neho",
        -9.077032811765742
      ],
      [
        "čo",
        -9.081713550142693
      ],
      [
        "nov",
        -9.08538398107781
      ],
      [
        "kon",
        -9.088910589995008
      ],
      [
        "▁rokoch",
        -9.089780603496829
      ],
      [
        "▁spôsobom",
        -9.090101739716264
      ],
      [
        "▁najviac",
        -9.090487449475187
      ],
      [
        "▁nepo",
        -9.09328996329116
      ],
      [
        "ě",
        -9.09883443616676
      ],
      [
        "▁pán",
        -9.10110132481631
      ],
      [
        "▁niekto",
        -9.10128647954637
      ],
      [
        "▁le",
        -9.103946374898984
      ],
      [
        "▁nej",
        -9.106020815929016
      ],
      [
        "▁takto",
        -9.108432812489571
      ],
      [
        "▁hneď",
        -9.108914368495087
      ],
      [
        "ení",
        -9.109741081911498
      ],
      [
        "▁hotel",
        -9.111467294616304
      ],
      [
        "▁neskôr",
        -9.114001930469332
      ],
      [
        "ovú",
        -9.114556754407593
      ],
      [
        "▁nebude",
        -9.116527326517376
      ],
      [
        "q",
        -9.117437259472934
      ],
      [
        "ské",
        -9.12007047240425
      ],
      [
        "čka",
        -9.133648520324618
      ],
      [
        "▁chce",
        -9.134252341599892
      ],
      [
        "ó",
        -9.13677745172892
      ],
      [
        "ejšie",
        -9.138527634456803
      ],
      [
        "▁vtedy",
        -9.140599966151932
      ],
      [
        "▁vrátane",
        -9.141157483704983
      ],
      [
        "▁všetkým",
        -9.142226924134112
      ],
      [
        "▁dieťa",
        -9.143406957695303
      ],
      [
        "▁pričom",
        -9.14371674292772
      ],
      [
        "ovaný",
        -9.143810850755678
      ],
      [
        "▁roka",
        -9.145351878697369
      ],
      [
        "▁hra",
        -9.145620284192994
      ],
      [
        "ený",
        -9.146099568186072
      ],
      [
        "▁zmluvy",
        -9.148883850036311
      ],
      [
        "▁náš",
        -9.14912500500653
      ],
      [
        "rie",
        -9.150054540375988
      ],
      [
        "▁strane",
        -9.153778738589866
      ],
      [
        "▁úrad",
        -9.157366526920596
      ],
      [
        "est",
        -9.157930028656684
      ],
      [
        "▁cieľom",
        -9.159549430410918
      ],
      [
        "▁menej",
        -9.160941796429936
      ],
      [
        "▁mar",
        -9.162555428876084
      ],
      [
        "▁roky",
        -9.16431201049627
      ],
      [
        "ber",
        -9.165307180181232
      ],
      [
        "▁taký",
        -9.1684462189154
      ],
      [
        "▁jedna",
        -9.168455649233032
      ],
      [
        "▁celkom",
        -9.173210463442736
      ],
      [
        "▁čím",
        -9.174088318103813
      ],
      [
        "▁presne",
        -9.17462660360776
      ],
      [
        "ísť",
        -9.176571715664368
      ],
      [
        "myslím",
        -9.176652066371714
      ],
      [
        "▁byt",
        -9.178531935072773
      ],
      [
        "▁auto",
        -9.178697802793398
      ],
      [
        "pri",
        -9.181280438212903
      ],
      [
        "▁dobrý",
        -9.181420497056568
      ],
      [
        "▁dlho",
        -9.181511312441918
      ],
      [
        "▁doma",
        -9.182414183856162
      ],
      [
        "▁vhodné",
        -9.183687850840323
      ],
      [
        "▁keby",
        -9.187220666712792
      ],
      [
        "▁mnoho",
        -9.188012501303849
      ],
      [
        "ská",
        -9.188120150526242
      ],
      [
        "▁detí",
        -9.189272992052798
      ],
      [
        "▁fa",
        -9.190571537619146
      ],
      [
        "▁stránke",
        -9.190810740313433
      ],
      [
        "▁večer",
        -9.191833635935838
      ],
      [
        "▁dobré",
        -9.19227329360631
      ],
      [
        "▁sp",
        -9.192805729997112
      ],
      [
        "▁stav",
        -9.192853140078524
      ],
      [
        "sti",
        -9.19286464780993
      ],
      [
        "▁ženy",
        -9.196749000124516
      ],
      [
        "vol",
        -9.197772046350234
      ],
      [
        "ského",
        -9.2022017166448
      ],
      [
        "▁dôležité",
        -9.202637137092603
      ],
      [
        "▁super",
        -9.20421398596634
      ],
      [
        "▁žiadne",
        -9.206030647105516
      ],
      [
        "ujeme",
        -9.206302481756644
      ],
      [
        "ran",
        -9.206858307069735
      ],
      [
        "▁trochu",
        -9.20689026753566
      ],
      [
        "▁miesta",
        -9.210451506343652
      ],
      [
        "ník",
        -9.21137460237865
      ],
      [
        "▁model",
        -9.212191134344398
      ],
      [
        "▁služieb",
        -9.2131673806314
      ],
      [
        "ice",
        -9.214099204440986
      ],
      [
        "▁st",
        -9.215471267432983
      ],
      [
        "ský",
        -9.217135135076834
      ],
      [
        "▁nez",
        -9.218626864756502
      ],
      [
        "▁nech",
        -9.2198997894456
      ],
      [
        "▁značky",
        -9.221186428101758
      ],
      [
        "▁znamená",
        -9.222840451752576
      ],
      [
        "ala",
        -9.223281173136977
      ],
      [
        "▁radi",
        -9.22481092839665
      ],
      [
        "ale",
        -9.22483540473319
      ],
      [
        "▁rada",
        -9.226040105249677
      ],
      [
        "▁materiál",
        -9.226616820185
      ],
      [
        "den",
        -9.227194788235884
      ],
      [
        "▁prípadne",
        -9.227440005864146
      ],
      [
        "▁rady",
        -9.22869238785657
      ],
      [
        "▁rozdiel",
        -9.230399652459614
      ],
      [
        "▁právo",
        -9.23092870808075
      ],
      [
        "▁také",
        -9.23559440456402
      ],
      [
        "lov",
        -9.236372849758038
      ],
      [
        "▁hoci",
        -9.239449615549262
      ],
      [
        "▁času",
        -9.241113624010229
      ],
      [
        "▁ex",
        -9.243393243416504
      ],
      [
        "▁nájsť",
        -9.244150339215375
      ],
      [
        "▁článok",
        -9.2452463262416
      ],
      [
        "▁podmienky",
        -9.247142084369171
      ],
      [
        "▁neza",
        -9.25160284268977
      ],
      [
        "síce",
        -9.255095584856353
      ],
      [
        "▁bar",
        -9.256163314587766
      ],
      [
        "▁taktiež",
        -9.256829841616902
      ],
      [
        "▁systému",
        -9.257248042222214
      ],
      [
        "▁ňom",
        -9.258291082266904
      ],
      [
        "▁druhej",
        -9.258300942928996
      ],
      [
        "der",
        -9.258765124447264
      ],
      [
        "ovým",
        -9.260970941012284
      ],
      [
        "▁správy",
        -9.261053175757436
      ],
      [
        "▁napr",
        -9.261701223877669
      ],
      [
        "ent",
        -9.267103740102783
      ],
      [
        "▁jednej",
        -9.268368817777912
      ],
      [
        "▁dom",
        -9.268519900448837
      ],
      [
        "▁of",
        -9.268567511681551
      ],
      [
        "▁navyše",
        -9.268992724594556
      ],
      [
        "tra",
        -9.27130649842243
      ],
      [
        "▁niektorých",
        -9.272678298235236
      ],
      [
        "▁aké",
        -9.27290405619801
      ],
      [
        "▁zariadenia",
        -9.272906011805771
      ],
      [
        "▁používa",
        -9.273328814670425
      ],
      [
        "šom",
        -9.27530654334271
      ],
      [
        "ovaní",
        -9.277074697816769
      ],
      [
        "▁týmto",
        -9.280262623439482
      ],
      [
        "▁pl",
        -9.281367916392531
      ],
      [
        "niu",
        -9.28296244610814
      ],
      [
        "▁pohľad",
        -9.28316493269181
      ],
      [
        "nových",
        -9.284468671170432
      ],
      [
        "▁okres",
        -9.290784608808655
      ],
      [
        "rad",
        -9.291431310167834
      ],
      [
        "▁prvé",
        -9.291560165330193
      ],
      [
        "hr",
        -9.293590284975064
      ],
      [
        "▁dvoj",
        -9.293851617732514
      ],
      [
        "▁činnosti",
        -9.294794841598945
      ],
      [
        "▁pi",
        -9.29533109456987
      ],
      [
        "▁vlastn",
        -9.295755700836503
      ],
      [
        "▁získal",
        -9.297971141849224
      ],
      [
        "▁obce",
        -9.29898354218635
      ],
      [
        "▁priestor",
        -9.300079461929492
      ],
      [
        "cia",
        -9.300486228974414
      ],
      [
        "val",
        -9.300903349255144
      ],
      [
        "▁postup",
        -9.306071381048286
      ],
      [
        "▁začiatku",
        -9.311001220531251
      ],
      [
        "▁video",
        -9.31177207553938
      ],
      [
        "▁návrh",
        -9.3129352786871
      ],
      [
        "kvôli",
        -9.313444359550976
      ],
      [
        "▁osoby",
        -9.316234572357642
      ],
      [
        "hod",
        -9.316502523571357
      ],
      [
        "▁telo",
        -9.320048466941511
      ],
      [
        "▁martin",
        -9.32110902843674
      ],
      [
        "▁robiť",
        -9.321133134501755
      ],
      [
        "ite",
        -9.322334318084229
      ],
      [
        "▁dispozícii",
        -9.323849625774274
      ],
      [
        "▁pomoc",
        -9.32520246187832
      ],
      [
        "osobných",
        -9.325841183686403
      ],
      [
        "▁sám",
        -9.32584385841216
      ],
      [
        "▁rád",
        -9.328949813489542
      ],
      [
        "▁jedného",
        -9.329632476068143
      ],
      [
        "▁online",
        -9.329683895528529
      ],
      [
        "▁www",
        -9.330017728344632
      ],
      [
        "▁predovšetkým",
        -9.331425425415
      ],
      [
        "tor",
        -9.333484468903468
      ],
      [
        "▁informácií",
        -9.33558256023851
      ],
      [
        "▁meste",
        -9.33582509594234
      ],
      [
        "▁pol",
        -9.33589598142472
      ],
      [
        "▁hry",
        -9.336579690072908
      ],
      [
        "mer",
        -9.337603899101758
      ],
      [
        "bor",
        -9.338030586234485
      ],
      [
        "ená",
        -9.338098145564306
      ],
      [
        "▁trhu",
        -9.34130778480743
      ],
      [
        "▁cenu",
        -9.342256591451733
      ],
      [
        "▁tr",
        -9.343167721701384
      ],
      [
        "▁prácu",
        -9.344998918275966
      ],
      [
        "nými",
        -9.345529243489056
      ],
      [
        "▁problémy",
        -9.345970693199495
      ],
      [
        "ď",
        -9.346815746908408
      ],
      [
        "▁ods",
        -9.346989300264989
      ],
      [
        "stať",
        -9.347444397715556
      ],
      [
        "ček",
        -9.347850180569756
      ],
      [
        "▁povedať",
        -9.348777870819664
      ],
      [
        "▁avšak",
        -9.35162864613446
      ],
      [
        "▁fakt",
        -9.352864270528851
      ],
      [
        "▁stránky",
        -9.35298088841139
      ],
      [
        "▁použiť",
        -9.354017606225035
      ],
      [
        "▁jednu",
        -9.355185055962028
      ],
      [
        "▁vec",
        -9.355355711005604
      ],
      [
        "▁hodín",
        -9.35655203017367
      ],
      [
        "nych",
        -9.357072676518534
      ],
      [
        "▁film",
        -9.359038148880463
      ],
      [
        "rod",
        -9.360380031014142
      ],
      [
        "▁možnosti",
        -9.361568885198588
      ],
      [
        "už",
        -9.363269393346268
      ],
      [
        "▁žiadn",
        -9.364151880815784
      ],
      [
        "▁ročník",
        -9.365080718406292
      ],
      [
        "▁voči",
        -9.36545629817032
      ],
      [
        "kami",
        -9.366422391370484
      ],
      [
        "▁ďalší",
        -9.366673957175689
      ],
      [
        "▁správne",
        -9.368919673539285
      ],
      [
        "▁nemal",
        -9.371661724757637
      ],
      [
        "ší",
        -9.371787730023518
      ],
      [
        "▁druhý",
        -9.373253974289046
      ],
      [
        "▁projekt",
        -9.374402561190518
      ],
      [
        "▁bratislave",
        -9.374673158646663
      ],
      [
        "▁stačí",
        -9.374772190964492
      ],
      [
        "iny",
        -9.375071011503952
      ],
      [
        "nášho",
        -9.375464547998437
      ],
      [
        "▁vidieť",
        -9.376255020087513
      ],
      [
        "rov",
        -9.37739153681776
      ],
      [
        "▁ľahko",
        -9.378865555873864
      ],
      [
        "\\",
        -9.37988387394521
      ],
      [
        "kol",
        -9.380706227374404
      ],
      [
        "▁and",
        -9.381342660079678
      ],
      [
        "▁nepre",
        -9.38178150755363
      ],
      [
        "št",
        -9.383110865797953
      ],
      [
        "▁košice",
        -9.383348741991655
      ],
      [
        "▁troch",
        -9.386802462471318
      ],
      [
        "▁krásne",
        -9.388174804943256
      ],
      [
        "ner",
        -9.389401672943066
      ],
      [
        "▁ján",
        -9.389693644329016
      ],
      [
        "tie",
        -9.392153532823205
      ],
      [
        "▁svojom",
        -9.39244211393597
      ],
      [
        "▁nimi",
        -9.393121672381954
      ],
      [
        "ost",
        -9.393750543565224
      ],
      [
        "ích",
        -9.39527990542727
      ],
      [
        "sta",
        -9.396993114621132
      ],
      [
        "▁začal",
        -9.39771928111979
      ],
      [
        "▁vie",
        -9.39832933326043
      ],
      [
        "▁moje",
        -9.398636267138055
      ],
      [
        "▁ty",
        -9.40176978111915
      ],
      [
        "▁mohol",
        -9.40177086273826
      ],
      [
        "▁dokáže",
        -9.402217929947128
      ],
      [
        "▁výsledky",
        -9.40367801430078
      ],
      [
        "▁ver",
        -9.406525157808556
      ],
      [
        "kla",
        -9.40663091533351
      ],
      [
        "novej",
        -9.406727829947354
      ],
      [
        "▁malo",
        -9.406832783020988
      ],
      [
        "▁skupiny",
        -9.408267340294396
      ],
      [
        "sme",
        -9.408452427233742
      ],
      [
        "▁práva",
        -9.409061587979128
      ],
      [
        "budeme",
        -9.41292398860062
      ],
      [
        "▁následne",
        -9.413904975316996
      ],
      [
        "▁vlastne",
        -9.414186259408972
      ],
      [
        "▁dni",
        -9.414734739789193
      ],
      [
        "▁každého",
        -9.415088367009902
      ],
      [
        "▁domu",
        -9.419205896631984
      ],
      [
        "▁miest",
        -9.420510209807858
      ],
      [
        "▁príbeh",
        -9.423831330455895
      ],
      [
        "▁produkt",
        -9.424912522346087
      ],
      [
        "▁príliš",
        -9.425559967962364
      ],
      [
        "▁tú",
        -9.426171137084166
      ],
      [
        "pr",
        -9.427461288002744
      ],
      [
        "▁moja",
        -9.427588687185311
      ],
      [
        "▁nakoniec",
        -9.431604867891414
      ],
      [
        "▁budem",
        -9.432198407580852
      ],
      [
        "▁nejak",
        -9.43286168939434
      ],
      [
        "▁chcel",
        -9.433647081139474
      ],
      [
        "▁peniaze",
        -9.433996786430866
      ],
      [
        "▁per",
        -9.434036101933238
      ],
      [
        "▁umožňuje",
        -9.435271957046936
      ],
      [
        "▁postupne",
        -9.436441681580837
      ],
      [
        "vášho",
        -9.43656217522872
      ],
      [
        "tel",
        -9.43723192617328
      ],
      [
        "ô",
        -9.437966690493312
      ],
      [
        "▁meno",
        -9.437984813921076
      ],
      [
        "▁výšk",
        -9.438387291707292
      ],
      [
        "▁kar",
        -9.43869358222192
      ],
      [
        "▁rad",
        -9.43923543675862
      ],
      [
        "prav",
        -9.440384128159778
      ],
      [
        "▁dr",
        -9.441369255926986
      ],
      [
        "▁sebou",
        -9.442191824184809
      ],
      [
        "▁hod",
        -9.44225226160846
      ],
      [
        "▁kor",
        -9.442676172502196
      ],
      [
        "▁pr",
        -9.44322000189547
      ],
      [
        "lep",
        -9.443301524063992
      ],
      [
        "▁typ",
        -9.448251592681068
      ],
      [
        "▁človeka",
        -9.448756770883772
      ],
      [
        "▁mne",
        -9.449608874536636
      ],
      [
        "ist",
        -9.45276514046062
      ],
      [
        "▁zariadení",
        -9.45722599436356
      ],
      [
        "▁súťaže",
        -9.45748298327923
      ],
      [
        "núť",
        -9.459499243745372
      ],
      [
        "▁vstup",
        -9.463809968941847
      ],
      [
        "mat",
        -9.464234701925676
      ],
      [
        "▁týka",
        -9.465651582274097
      ],
      [
        "▁slov",
        -9.466260809340618
      ],
      [
        "▁zápas",
        -9.46763936715684
      ],
      [
        "▁použitie",
        -9.467863813531867
      ],
      [
        "▁nemôže",
        -9.467993306107676
      ],
      [
        "▁mimo",
        -9.470204232295938
      ],
      [
        "▁vplyv",
        -9.470813309164612
      ],
      [
        "▁období",
        -9.472305868197918
      ],
      [
        "▁záujem",
        -9.472479619042266
      ],
      [
        "▁dostal",
        -9.472645797565775
      ],
      [
        "ňou",
        -9.473375980225644
      ],
      [
        "vašej",
        -9.473483559693326
      ],
      [
        "▁obsah",
        -9.473487530656929
      ],
      [
        "pis",
        -9.473592379626584
      ],
      [
        "▁kam",
        -9.47457525261881
      ],
      [
        "ských",
        -9.47622500015287
      ],
      [
        "pra",
        -9.479953424198644
      ],
      [
        "▁tej",
        -9.48176531439273
      ],
      [
        "▁potreby",
        -9.48204139463498
      ],
      [
        "▁star",
        -9.4821483627322
      ],
      [
        "▁foto",
        -9.485082189009264
      ],
      [
        "▁usa",
        -9.485437523257543
      ],
      [
        "živ",
        -9.486936641278758
      ],
      [
        "▁projektu",
        -9.487764628103
      ],
      [
        "▁malé",
        -9.488350305444518
      ],
      [
        "var",
        -9.488847279508567
      ],
      [
        "▁pomáha",
        -9.489068828341422
      ],
      [
        "▁veľkosť",
        -9.489288392284957
      ],
      [
        "▁boh",
        -9.491280192875124
      ],
      [
        "▁skúsenosti",
        -9.4914628206035
      ],
      [
        "▁nedo",
        -9.492336439055787
      ],
      [
        "▁kraj",
        -9.492623925268822
      ],
      [
        "▁moc",
        -9.492633566593971
      ],
      [
        "▁sms",
        -9.49300385633496
      ],
      [
        "▁skutočne",
        -9.496861356543484
      ],
      [
        "ková",
        -9.497771290314343
      ],
      [
        "www",
        -9.499702216669904
      ],
      [
        "▁súčasnosti",
        -9.499915870409506
      ],
      [
        "cel",
        -9.502621554600552
      ],
      [
        "▁štát",
        -9.502632491972369
      ],
      [
        "▁súd",
        -9.503587302224767
      ],
      [
        "per",
        -9.504279754542036
      ],
      [
        "jedným",
        -9.50475117288072
      ],
      [
        "▁nejaký",
        -9.506235287047572
      ],
      [
        "▁vhodný",
        -9.508768633373537
      ],
      [
        "▁ked",
        -9.50901300581018
      ],
      [
        "▁podobne",
        -9.5097150452459
      ],
      [
        "▁tím",
        -9.509751226691236
      ],
      [
        "▁svojim",
        -9.509946878547392
      ],
      [
        "▁mas",
        -9.510957205065088
      ],
      [
        "▁urobiť",
        -9.51111329165736
      ],
      [
        "ler",
        -9.511450127776287
      ],
      [
        "▁hor",
        -9.511602061734092
      ],
      [
        "▁chcem",
        -9.5131064006129
      ],
      [
        "▁začína",
        -9.514466804397662
      ],
      [
        "▁nová",
        -9.514501750682628
      ],
      [
        "▁farby",
        -9.51460371027771
      ],
      [
        "▁ponúkame",
        -9.514982724867062
      ],
      [
        "▁predsa",
        -9.515736784784483
      ],
      [
        "and",
        -9.516578335267477
      ],
      [
        "rob",
        -9.51856474207501
      ],
      [
        "nového",
        -9.519819508136884
      ],
      [
        "▁jednotlivých",
        -9.5207725005672
      ],
      [
        "stup",
        -9.520783632875633
      ],
      [
        "▁osobné",
        -9.52192832042055
      ],
      [
        "▁príde",
        -9.522095235282675
      ],
      [
        "▁dobe",
        -9.52288551601622
      ],
      [
        "ujte",
        -9.52362675290624
      ],
      [
        "▁prvom",
        -9.524148845710627
      ],
      [
        "▁firmy",
        -9.524880679778594
      ],
      [
        "tzv",
        -9.525332489613431
      ],
      [
        "žiť",
        -9.526948311129171
      ],
      [
        "let",
        -9.52730186981018
      ],
      [
        "▁vysoko",
        -9.52732155805396
      ],
      [
        "▁tvoj",
        -9.527595582081249
      ],
      [
        "ica",
        -9.528787782400531
      ],
      [
        "▁riešenie",
        -9.529922250760697
      ],
      [
        "ením",
        -9.53002423492216
      ],
      [
        "▁web",
        -9.531055366126754
      ],
      [
        "tro",
        -9.531056221946466
      ],
      [
        "▁musel",
        -9.53204395481412
      ],
      [
        "▁celé",
        -9.53219715975188
      ],
      [
        "▁zmeny",
        -9.535422878025118
      ],
      [
        "▁mil",
        -9.53565930211033
      ],
      [
        "▁pe",
        -9.537882381380246
      ],
      [
        "▁dar",
        -9.53860333885038
      ],
      [
        "▁krajiny",
        -9.541984333305402
      ],
      [
        "▁samotn",
        -9.542034186094137
      ],
      [
        "ion",
        -9.542135755487012
      ],
      [
        "skom",
        -9.544184553033393
      ],
      [
        "▁cca",
        -9.544337250594838
      ],
      [
        "▁mnohých",
        -9.544613986681574
      ],
      [
        "celého",
        -9.54636129562725
      ],
      [
        "▁osoba",
        -9.546558993445029
      ],
      [
        "▁iný",
        -9.54666726360655
      ],
      [
        "▁energie",
        -9.546945398270545
      ],
      [
        "oveľa",
        -9.547099282913898
      ],
      [
        "diel",
        -9.547118213192965
      ],
      [
        "▁áno",
        -9.549186720339977
      ],
      [
        "▁proces",
        -9.549951757613364
      ],
      [
        "▁webov",
        -9.55039730349324
      ],
      [
        "▁resp",
        -9.551721592662652
      ],
      [
        "ger",
        -9.551889237621836
      ],
      [
        "▁vlasy",
        -9.552694081174934
      ],
      [
        "▁autor",
        -9.552972229655776
      ],
      [
        "tri",
        -9.554023139636158
      ],
      [
        "cen",
        -9.555304797880956
      ],
      [
        "▁typu",
        -9.556439449708153
      ],
      [
        "▁naša",
        -9.559132116418144
      ],
      [
        "▁prís",
        -9.559362138719528
      ],
      [
        "▁viem",
        -9.559386262984267
      ],
      [
        "▁rodiny",
        -9.55975773571228
      ],
      [
        "▁poskytuje",
        -9.56014793974542
      ],
      [
        "▁ro",
        -9.561482118568698
      ],
      [
        "mohla",
        -9.562627086665564
      ],
      [
        "▁programu",
        -9.563295808686188
      ],
      [
        "▁bod",
        -9.563429304793557
      ],
      [
        "▁olej",
        -9.56400677931656
      ],
      [
        "▁rozvoj",
        -9.564208468443235
      ],
      [
        "▁článku",
        -9.564516801988423
      ],
      [
        "▁apríl",
        -9.564583506082744
      ],
      [
        "emu",
        -9.565198299845855
      ],
      [
        "osťou",
        -9.566678320076308
      ],
      [
        "▁dôvod",
        -9.56727774829494
      ],
      [
        "▁zdravotn",
        -9.567582694127326
      ],
      [
        "▁získať",
        -9.567623925271045
      ],
      [
        "▁prv",
        -9.568271281205009
      ],
      [
        "▁dnešn",
        -9.568798173961826
      ],
      [
        "del",
        -9.56885832957128
      ],
      [
        "▁pritom",
        -9.569768537470488
      ],
      [
        "▁knihy",
        -9.570388253403737
      ],
      [
        "les",
        -9.570574880586047
      ],
      [
        "teľ",
        -9.571632229241256
      ],
      [
        "▁člen",
        -9.572067995101834
      ],
      [
        "▁musia",
        -9.574780179690174
      ],
      [
        "▁páči",
        -9.575180319350377
      ],
      [
        "▁dlh",
        -9.57528696924284
      ],
      [
        "¤",
        -9.576722504745288
      ],
      [
        "▁mesiac",
        -9.576766992295244
      ],
      [
        "▁január",
        -9.577345945655784
      ],
      [
        "dia",
        -9.577939943884838
      ],
      [
        "tak",
        -9.579076211516265
      ],
      [
        "▁väčšina",
        -9.579859946586527
      ],
      [
        "▁trh",
        -9.58035116187831
      ],
      [
        "▁vybrať",
        -9.581017201510972
      ],
      [
        "▁prí",
        -9.581625136229
      ],
      [
        "▁používať",
        -9.581685538137638
      ],
      [
        "▁nebolo",
        -9.581739413738225
      ],
      [
        "▁kód",
        -9.584239752535805
      ],
      [
        "▁stal",
        -9.584298066311996
      ],
      [
        "▁motor",
        -9.5859930752536
      ],
      [
        "▁cesta",
        -9.586504064594676
      ],
      [
        "ment",
        -9.586826689318862
      ],
      [
        "eň",
        -9.588772844430736
      ],
      [
        "▁činnosť",
        -9.588937556172228
      ],
      [
        "▁aký",
        -9.589563640144949
      ],
      [
        "pro",
        -9.592518253039843
      ],
      [
        "▁nikto",
        -9.593501107347777
      ],
      [
        "čky",
        -9.596033608507367
      ],
      [
        "▁domáci",
        -9.596940395346984
      ],
      [
        "▁vyššie",
        -9.597847056720298
      ],
      [
        "▁približne",
        -9.598309466965208
      ],
      [
        "rat",
        -9.59967899845975
      ],
      [
        "ovala",
        -9.6025632287737
      ],
      [
        "▁vývoj",
        -9.603094260831597
      ],
      [
        "▁druh",
        -9.604088158245242
      ],
      [
        "▁bu",
        -9.604129553449784
      ],
      [
        "▁voda",
        -9.604952956712582
      ],
      [
        "▁týždeň",
        -9.605025733967109
      ],
      [
        "▁názov",
        -9.605173673152422
      ],
      [
        "ren",
        -9.60561366227246
      ],
      [
        "chcú",
        -9.605655755893356
      ],
      [
        "ón",
        -9.605827586604956
      ],
      [
        "▁tí",
        -9.606038286408507
      ],
      [
        "▁sex",
        -9.60711367020384
      ],
      [
        "▁tela",
        -9.607780730938872
      ],
      [
        "▁štýl",
        -9.61222985375704
      ],
      [
        "▁hodiny",
        -9.612429813543583
      ],
      [
        "▁rozhodne",
        -9.61400290007482
      ],
      [
        "▁bio",
        -9.61406878973498
      ],
      [
        "▁názor",
        -9.614653969499734
      ],
      [
        "▁dal",
        -9.61538399407116
      ],
      [
        "▁her",
        -9.615706344178204
      ],
      [
        "▁storočia",
        -9.61697364158092
      ],
      [
        "íme",
        -9.617118534184064
      ],
      [
        "klad",
        -9.617500252547096
      ],
      [
        "▁hráč",
        -9.61819303212246
      ],
      [
        "▁les",
        -9.6189038946128
      ],
      [
        "▁nebol",
        -9.622325578150647
      ],
      [
        "▁peter",
        -9.622424455734638
      ],
      [
        "▁veku",
        -9.62271770096208
      ],
      [
        "prvej",
        -9.623886200866858
      ],
      [
        "▁úrovni",
        -9.624380791700323
      ],
      [
        "▁využíva",
        -9.626561815084358
      ],
      [
        "▁mat",
        -9.626835921650178
      ],
      [
        "každej",
        -9.627438465206485
      ],
      [
        "▁podarilo",
        -9.627942831107356
      ],
      [
        "▁jednoduché",
        -9.62857891405555
      ],
      [
        "bal",
        -9.62963692260816
      ],
      [
        "▁naopak",
        -9.63017855887374
      ],
      [
        "▁sem",
        -9.631345975188587
      ],
      [
        "▁živote",
        -9.633276591347466
      ],
      [
        "ovaná",
        -9.633907679024208
      ],
      [
        "▁svät",
        -9.634289245093743
      ],
      [
        "▁vykonáva",
        -9.634738386372952
      ],
      [
        "dajú",
        -9.635786015343449
      ],
      [
        "▁lekár",
        -9.636624601961078
      ],
      [
        "▁plán",
        -9.637058438261626
      ],
      [
        "▁dátum",
        -9.638899182903154
      ],
      [
        "▁muž",
        -9.639850446911504
      ],
      [
        "▁zdroj",
        -9.640743457876924
      ],
      [
        "▁produkty",
        -9.640748492621306
      ],
      [
        "▁chuť",
        -9.640832375271811
      ],
      [
        "▁par",
        -9.642447267293658
      ],
      [
        "br",
        -9.6428640936382
      ],
      [
        "šie",
        -9.643268135336664
      ],
      [
        "tal",
        -9.64378929445758
      ],
      [
        "▁práca",
        -9.645620595809692
      ],
      [
        "▁dôvodu",
        -9.64635967341452
      ],
      [
        "acute",
        -9.646701547523325
      ],
      [
        "▁orgán",
        -9.647163456137983
      ],
      [
        "átor",
        -9.648932864970682
      ],
      [
        "▁zariadenie",
        -9.652289559571466
      ],
      [
        "{",
        -9.652632297426702
      ],
      [
        "▁súťaž",
        -9.652929584681385
      ],
      [
        "▁pal",
        -9.653320742711792
      ],
      [
        "▁vlastné",
        -9.653600951030606
      ],
      [
        "▁väčšin",
        -9.654109733270763
      ],
      [
        "▁min",
        -9.654806160712132
      ],
      [
        "▁prináša",
        -9.654895939916658
      ],
      [
        "▁pomôcť",
        -9.655175110574593
      ],
      [
        "▁vecí",
        -9.656428351086678
      ],
      [
        "ajú",
        -9.65643349037301
      ],
      [
        "▁mesiacov",
        -9.656638477833855
      ],
      [
        "▁diel",
        -9.658495021407704
      ],
      [
        "▁cestu",
        -9.659372132509247
      ],
      [
        "▁spa",
        -9.660393230372913
      ],
      [
        "▁dostať",
        -9.660919554655251
      ],
      [
        "▁nejaké",
        -9.661381651492372
      ],
      [
        "▁obci",
        -9.661619652629955
      ],
      [
        "▁priemer",
        -9.662812617443462
      ],
      [
        "fer",
        -9.66403108459078
      ],
      [
        "▁akcie",
        -9.665626216287686
      ],
      [
        "▁málo",
        -9.666681983168084
      ],
      [
        "▁prosím",
        -9.667238524889315
      ],
      [
        "▁dĺžk",
        -9.667603536577415
      ],
      [
        "▁cesty",
        -9.668394820143028
      ],
      [
        "▁veľká",
        -9.668834940794495
      ],
      [
        "ster",
        -9.670426674829582
      ],
      [
        "▁dobu",
        -9.671055733744923
      ],
      [
        "▁celom",
        -9.671161364535651
      ],
      [
        "▁vedieť",
        -9.671345979530749
      ],
      [
        "▁kontakt",
        -9.671868068582016
      ],
      [
        "ick",
        -9.672707156459625
      ],
      [
        "▁percent",
        -9.673532012104012
      ],
      [
        "celej",
        -9.675986532455752
      ],
      [
        "šiel",
        -9.676461745300491
      ],
      [
        "▁zoznam",
        -9.67731268587597
      ],
      [
        "▁uvedené",
        -9.67962045430984
      ],
      [
        "júce",
        -9.68311301534552
      ],
      [
        "▁produktov",
        -9.683580817909458
      ],
      [
        "vzhľadom",
        -9.684509389463374
      ],
      [
        "▁noc",
        -9.686009658726157
      ],
      [
        "▁nepri",
        -9.686700110932874
      ],
      [
        "ujem",
        -9.686966292241532
      ],
      [
        "gen",
        -9.687737608168968
      ],
      [
        "▁podporu",
        -9.689281786455254
      ],
      [
        "▁názvom",
        -9.689683971110036
      ],
      [
        "ani",
        -9.691267797863487
      ],
      [
        "▁plat",
        -9.691577686438691
      ],
      [
        "vie",
        -9.692908522420028
      ],
      [
        "lan",
        -9.693025080309418
      ],
      [
        "▁veď",
        -9.693577947646292
      ],
      [
        "▁ďakujem",
        -9.694588740584347
      ],
      [
        "▁platí",
        -9.69652298481235
      ],
      [
        "▁ponuky",
        -9.698748264583962
      ],
      [
        "▁porno",
        -9.698928374561287
      ],
      [
        "▁osôb",
        -9.698971613220552
      ],
      [
        "pan",
        -9.698986924328713
      ],
      [
        "▁bi",
        -9.69933535818368
      ],
      [
        "▁for",
        -9.700095457024709
      ],
      [
        "▁stojí",
        -9.701190274200416
      ],
      [
        "ff",
        -9.701993341607812
      ],
      [
        "▁správa",
        -9.70263009772498
      ],
      [
        "mail",
        -9.702995282851608
      ],
      [
        "ilo",
        -9.70330847192253
      ],
      [
        "ovou",
        -9.704900940820922
      ],
      [
        "line",
        -9.706471823155663
      ],
      [
        "min",
        -9.707588923109167
      ],
      [
        "▁slovenský",
        -9.707787683530688
      ],
      [
        "str",
        -9.708180401325071
      ],
      [
        "▁popis",
        -9.709082230215468
      ],
      [
        "▁svojou",
        -9.709322453253808
      ],
      [
        "ser",
        -9.710058623552609
      ],
      [
        "▁nemám",
        -9.71053662292558
      ],
      [
        "▁úloh",
        -9.71096893961669
      ],
      [
        "mal",
        -9.711175330098088
      ],
      [
        "▁hrad",
        -9.71121170582022
      ],
      [
        "ácie",
        -9.711319261808027
      ],
      [
        "▁vzťah",
        -9.71137525440212
      ],
      [
        "▁go",
        -9.711885576688914
      ],
      [
        "súlade",
        -9.712138125666064
      ],
      [
        "▁boj",
        -9.712573742889608
      ],
      [
        "▁ulici",
        -9.713438895274672
      ],
      [
        "▁začne",
        -9.713878598712272
      ],
      [
        "koľvek",
        -9.714303562864677
      ],
      [
        "▁pohyb",
        -9.715161842009348
      ],
      [
        "lad",
        -9.716515037188104
      ],
      [
        "novú",
        -9.717370652201108
      ],
      [
        "šte",
        -9.719461189310136
      ],
      [
        "▁sklad",
        -9.720168473336988
      ],
      [
        "▁kupujúci",
        -9.720174635133294
      ],
      [
        "▁obdobie",
        -9.720492061418378
      ],
      [
        "viete",
        -9.72069731940185
      ],
      [
        "pol",
        -9.721018788522672
      ],
      [
        "vašich",
        -9.722075015096976
      ],
      [
        "▁predstavuje",
        -9.723147566377248
      ],
      [
        "neho",
        -9.724095760706064
      ],
      [
        "viac",
        -9.724531355762847
      ],
      [
        "▁polovic",
        -9.724890392524356
      ],
      [
        "▁škole",
        -9.725373328463888
      ],
      [
        "ovom",
        -9.726482678111047
      ],
      [
        "▁ostatné",
        -9.726780483590892
      ],
      [
        "van",
        -9.726801705239788
      ],
      [
        "▁každé",
        -9.727179863162236
      ],
      [
        "▁priebehu",
        -9.727310810222384
      ],
      [
        "▁špeciálne",
        -9.727586276318505
      ],
      [
        "ity",
        -9.727755213962366
      ],
      [
        "}",
        -9.727873238236322
      ],
      [
        "▁práci",
        -9.728151823923266
      ],
      [
        "▁funkcie",
        -9.72918049187443
      ],
      [
        "▁prípad",
        -9.729389847054811
      ],
      [
        "▁sobot",
        -9.729549968739066
      ],
      [
        "▁dizajn",
        -9.730081080078158
      ],
      [
        "▁park",
        -9.730954139728668
      ],
      [
        "pad",
        -9.731719683420453
      ],
      [
        "▁test",
        -9.732513267321885
      ],
      [
        "▁otázky",
        -9.733365884189071
      ],
      [
        "▁hlas",
        -9.733851064054278
      ],
      [
        "▁štyri",
        -9.734181380612196
      ],
      [
        "▁kvality",
        -9.734539126066911
      ],
      [
        "▁ochranu",
        -9.734735780384254
      ],
      [
        "▁prehľad",
        -9.734921390591564
      ],
      [
        "▁šport",
        -9.735985577380276
      ],
      [
        "▁povinný",
        -9.736637712071827
      ],
      [
        "▁robí",
        -9.738444754898715
      ],
      [
        "▁radosť",
        -9.738861012282694
      ],
      [
        "▁denne",
        -9.740848970890228
      ],
      [
        "▁takéto",
        -9.74165810488384
      ],
      [
        "▁význam",
        -9.741956370306898
      ],
      [
        "▁predtým",
        -9.742959930093251
      ],
      [
        "dol",
        -9.744078525361726
      ],
      [
        "▁pan",
        -9.745813111880006
      ],
      [
        "▁škola",
        -9.746154336756092
      ],
      [
        "ácia",
        -9.748245118980169
      ],
      [
        "▁podmienok",
        -9.748426225046009
      ],
      [
        "▁prostredia",
        -9.751302261857898
      ],
      [
        "end",
        -9.75153960937569
      ],
      [
        "▁využiť",
        -9.751579309921514
      ],
      [
        "▁pôsobí",
        -9.751738040465648
      ],
      [
        "▁gu",
        -9.752152497663753
      ],
      [
        "▁termín",
        -9.753195377585484
      ],
      [
        "ved",
        -9.753437054910725
      ],
      [
        "▁koľko",
        -9.756175344472307
      ],
      [
        "nes",
        -9.756596910177796
      ],
      [
        "▁výhľad",
        -9.758018989569296
      ],
      [
        "▁pás",
        -9.75811391169112
      ],
      [
        "▁farba",
        -9.75837025991182
      ],
      [
        "stvo",
        -9.759219798776824
      ],
      [
        "iach",
        -9.759368379189135
      ],
      [
        "▁samo",
        -9.759880814659802
      ],
      [
        "ška",
        -9.761716588309014
      ],
      [
        "▁začala",
        -9.7619968657502
      ],
      [
        "▁aktuálne",
        -9.762225551245502
      ],
      [
        "▁internet",
        -9.762558991914494
      ],
      [
        "▁vytvoriť",
        -9.762691928235483
      ],
      [
        "iet",
        -9.76271780274673
      ],
      [
        "par",
        -9.76298122887568
      ],
      [
        "cit",
        -9.765210498870802
      ],
      [
        "▁prejav",
        -9.7656762119206
      ],
      [
        "▁slovenského",
        -9.76571499455896
      ],
      [
        "písať",
        -9.766272905123584
      ],
      [
        "amp",
        -9.76682831247355
      ],
      [
        "hľad",
        -9.76883413907606
      ],
      [
        "▁starostlivosť",
        -9.769755041588166
      ],
      [
        "▁kniha",
        -9.769924694699302
      ],
      [
        "▁minul",
        -9.7700889362113
      ],
      [
        "nice",
        -9.77033817128278
      ],
      [
        "▁naši",
        -9.77072275279166
      ],
      [
        "▁jan",
        -9.770972253121794
      ],
      [
        "▁výskum",
        -9.77109713393918
      ],
      [
        "chov",
        -9.771963016760465
      ],
      [
        "▁slovenských",
        -9.772304084896732
      ],
      [
        "▁pomer",
        -9.772356234748672
      ],
      [
        "▁sto",
        -9.772358767091616
      ],
      [
        "▁izby",
        -9.772469060879091
      ],
      [
        "iného",
        -9.77308973668204
      ],
      [
        "ů",
        -9.773830479236125
      ],
      [
        "▁vlastnosti",
        -9.774913262432204
      ],
      [
        "bit",
        -9.776246537689396
      ],
      [
        "▁európskej",
        -9.776329926921438
      ],
      [
        "▁zase",
        -9.776568363552062
      ],
      [
        "▁náklady",
        -9.776633639201782
      ],
      [
        "začali",
        -9.776656162371513
      ],
      [
        "▁súčasn",
        -9.776747717640433
      ],
      [
        "▁zadarmo",
        -9.777012259266373
      ],
      [
        "▁pozor",
        -9.777132851950917
      ],
      [
        "▁kop",
        -9.777935358437476
      ],
      [
        "▁spoločn",
        -9.778230097853884
      ],
      [
        "▁tele",
        -9.778251354879105
      ],
      [
        "▁chýba",
        -9.779963604177642
      ],
      [
        "▁rade",
        -9.780566781027002
      ],
      [
        "▁celú",
        -9.783589413387473
      ],
      [
        "kedykoľvek",
        -9.783799047293884
      ],
      [
        "▁ubytovanie",
        -9.78452323676031
      ],
      [
        "radšej",
        -9.784765292634544
      ],
      [
        "▁štátu",
        -9.785978338493726
      ],
      [
        "▁http",
        -9.786819010934629
      ],
      [
        "▁jozef",
        -9.78749555830018
      ],
      [
        "▁prvá",
        -9.788681192905518
      ],
      [
        "ron",
        -9.789345008273845
      ],
      [
        "ä",
        -9.789562043901974
      ],
      [
        "▁súvislosti",
        -9.789688020910395
      ],
      [
        "odpovedz",
        -9.789790930669268
      ],
      [
        "ejší",
        -9.790156068366688
      ],
      [
        "▁telefón",
        -9.790317517943803
      ],
      [
        "▁destinácii",
        -9.79115898439464
      ],
      [
        "▁vlasov",
        -9.792272929850546
      ],
      [
        "▁tvar",
        -9.793131296177126
      ],
      [
        "▁materiálu",
        -9.793192603008835
      ],
      [
        "ovaním",
        -9.79358632482566
      ],
      [
        "▁každá",
        -9.794393540542409
      ],
      [
        "▁vlády",
        -9.794408754016128
      ],
      [
        "▁mor",
        -9.795177810532834
      ],
      [
        "▁päť",
        -9.795632570744004
      ],
      [
        "▁každom",
        -9.79578100448793
      ],
      [
        "▁jar",
        -9.797339368451333
      ],
      [
        "▁okolí",
        -9.79773461476673
      ],
      [
        "▁fe",
        -9.7981381623577
      ],
      [
        "▁ceste",
        -9.798539439581027
      ],
      [
        "▁noci",
        -9.801040304934622
      ],
      [
        "eniu",
        -9.801052077563968
      ],
      [
        "nic",
        -9.801708248534096
      ],
      [
        "viesť",
        -9.801830278199288
      ],
      [
        "▁ráno",
        -9.801924902922588
      ],
      [
        "▁titul",
        -9.802093561638497
      ],
      [
        "▁pozrieť",
        -9.80300763704051
      ],
      [
        "port",
        -9.80332322982807
      ],
      [
        "top",
        -9.805246394708528
      ],
      [
        "sil",
        -9.806230863992106
      ],
      [
        "▁skoro",
        -9.806653012842531
      ],
      [
        "▁syn",
        -9.807036239322455
      ],
      [
        "▁vašu",
        -9.807492256369224
      ],
      [
        "▁zákazníkov",
        -9.808369869967835
      ],
      [
        "▁ga",
        -9.80940464702877
      ],
      [
        "veľkej",
        -9.81095841983483
      ],
      [
        "▁servis",
        -9.81140329931804
      ],
      [
        "prišiel",
        -9.811924047729889
      ],
      [
        "▁býval",
        -9.813258994215127
      ],
      [
        "čítať",
        -9.81394268215216
      ],
      [
        "▁viacerých",
        -9.814127391561772
      ],
      [
        "roz",
        -9.81435495135596
      ],
      [
        "pod",
        -9.814418164478234
      ],
      [
        "▁text",
        -9.815046918548434
      ],
      [
        "ret",
        -9.815154785970453
      ],
      [
        "▁oči",
        -9.81532187111974
      ],
      [
        "▁mam",
        -9.815382056206069
      ],
      [
        "▁pekne",
        -9.815775115278528
      ],
      [
        "▁pleť",
        -9.816234127387997
      ],
      [
        "▁centra",
        -9.81670328824884
      ],
      [
        "▁svojím",
        -9.818327839218878
      ],
      [
        "▁podobe",
        -9.818936757384032
      ],
      [
        "shop",
        -9.819438659537331
      ],
      [
        "▁obec",
        -9.819507301036404
      ],
      [
        "tik",
        -9.820001951347454
      ],
      [
        "net",
        -9.82196211302108
      ],
      [
        "▁taká",
        -9.822342147198542
      ],
      [
        "▁osobne",
        -9.82246026755922
      ],
      [
        "▁problémov",
        -9.823031312678824
      ],
      [
        "▁hotelov",
        -9.823764882824488
      ],
      [
        "území",
        -9.825807150128748
      ],
      [
        "▁minimálne",
        -9.82617400931374
      ],
      [
        "▁väčšinou",
        -9.826804701798205
      ],
      [
        "▁new",
        -9.8272470712131
      ],
      [
        "▁zamestnancov",
        -9.827393985057666
      ],
      [
        "▁zem",
        -9.827475434814165
      ],
      [
        "▁zmysle",
        -9.830110227937697
      ],
      [
        "bol",
        -9.83013868100813
      ],
      [
        "▁sieť",
        -9.830151809787417
      ],
      [
        "nit",
        -9.831886531297972
      ],
      [
        "▁širok",
        -9.832454688653618
      ],
      [
        "▁smer",
        -9.83339827001488
      ],
      [
        "ten",
        -9.83551157604733
      ],
      [
        "▁konečne",
        -9.83617944202768
      ],
      [
        "▁zl",
        -9.836341895178965
      ],
      [
        "▁neustále",
        -9.83815120545469
      ],
      [
        "▁látky",
        -9.838262596155584
      ],
      [
        "ovač",
        -9.839526825371095
      ],
      [
        "▁písm",
        -9.83953732167046
      ],
      [
        "lin",
        -9.839861946338845
      ],
      [
        "▁objem",
        -9.84135963456246
      ],
      [
        "▁car",
        -9.842555358228024
      ],
      [
        "dla",
        -9.843063873461576
      ],
      [
        "▁pôd",
        -9.843902739827689
      ],
      [
        "▁troj",
        -9.844183494439385
      ],
      [
        "▁aktivity",
        -9.84466343403287
      ],
      [
        "▁malý",
        -9.845985286709167
      ],
      [
        "ine",
        -9.846095664833497
      ],
      [
        "íte",
        -9.846122040622705
      ],
      [
        "ťah",
        -9.84732776171344
      ],
      [
        "sen",
        -9.847482377086637
      ],
      [
        "▁blog",
        -9.847697893601769
      ],
      [
        "▁moji",
        -9.848527011439243
      ],
      [
        "▁napísal",
        -9.848777570531803
      ],
      [
        "výške",
        -9.8503664026642
      ],
      [
        "mar",
        -9.850480500162927
      ],
      [
        "▁strán",
        -9.850713348285792
      ],
      [
        "▁patria",
        -9.850728105878266
      ],
      [
        "▁objednávky",
        -9.851142109495669
      ],
      [
        "▁mužov",
        -9.852102615340746
      ],
      [
        "▁zdravie",
        -9.852754096868331
      ],
      [
        "▁rod",
        -9.85411786860698
      ],
      [
        "musíte",
        -9.854204570617192
      ],
      [
        "▁led",
        -9.856081296599594
      ],
      [
        "určené",
        -9.857769310262531
      ],
      [
        "▁slová",
        -9.8602147385754
      ],
      [
        "▁konci",
        -9.860478213171884
      ],
      [
        "▁chcela",
        -9.860599529069354
      ],
      [
        "stre",
        -9.86072717882717
      ],
      [
        "▁ochrany",
        -9.861694535106627
      ],
      [
        "▁späť",
        -9.861892121377016
      ],
      [
        "nejšie",
        -9.86284724094232
      ],
      [
        "▁záver",
        -9.862932390451704
      ],
      [
        "▁minulosti",
        -9.863069646729793
      ],
      [
        "▁ruky",
        -9.863353397778493
      ],
      [
        "▁nena",
        -9.86343034353482
      ],
      [
        "▁obraz",
        -9.863662347059716
      ],
      [
        "form",
        -9.863923792394052
      ],
      [
        "prí",
        -9.864128798851642
      ],
      [
        "▁centrum",
        -9.86441258406164
      ],
      [
        "▁prostredí",
        -9.86497008098051
      ],
      [
        "▁atmosfér",
        -9.865181500017906
      ],
      [
        "tom",
        -9.866429748079195
      ],
      [
        "ičky",
        -9.867081973623316
      ],
      [
        "isti",
        -9.867107729546632
      ],
      [
        "▁ostatných",
        -9.867246017173583
      ],
      [
        "▁skončil",
        -9.867351379719937
      ],
      [
        "▁dph",
        -9.86738531570907
      ],
      [
        "▁riešenia",
        -9.86950015786273
      ],
      [
        "▁slova",
        -9.869761547067672
      ],
      [
        "▁vzhľad",
        -9.870437927423696
      ],
      [
        "▁anti",
        -9.870784373335509
      ],
      [
        "▁vyzerá",
        -9.871118992733848
      ],
      [
        "▁euro",
        -9.871959573735428
      ],
      [
        "▁ježiš",
        -9.872051131350467
      ],
      [
        "▁zaujímavé",
        -9.872703456927978
      ],
      [
        "▁br",
        -9.872839345607474
      ],
      [
        "▁list",
        -9.8728780660491
      ],
      [
        "▁con",
        -9.873837174632875
      ],
      [
        "každú",
        -9.877302429986212
      ],
      [
        "▁potrebujete",
        -9.877570031129078
      ],
      [
        "▁predpisov",
        -9.877976931517212
      ],
      [
        "▁žiakov",
        -9.878311909011922
      ],
      [
        "▁bazén",
        -9.880732081370368
      ],
      [
        "▁existuje",
        -9.881030430493508
      ],
      [
        "▁pohár",
        -9.881639917516694
      ],
      [
        "▁môžem",
        -9.882595271764613
      ],
      [
        "pomerne",
        -9.882909159733064
      ],
      [
        "▁kúpiť",
        -9.883282216800636
      ],
      [
        "ern",
        -9.883383655632532
      ],
      [
        "▁hodnoty",
        -9.884005185726574
      ],
      [
        "atď",
        -9.884766562474375
      ],
      [
        "▁súhlas",
        -9.88543373620153
      ],
      [
        "▁výrazne",
        -9.887277260423884
      ],
      [
        "ker",
        -9.887900137240932
      ],
      [
        "▁prostredie",
        -9.888657642572396
      ],
      [
        "▁predplatné",
        -9.888687374704226
      ],
      [
        "určený",
        -9.88972544071994
      ],
      [
        "▁tvár",
        -9.891143979607726
      ],
      [
        "níkov",
        -9.891788714110076
      ],
      [
        "ban",
        -9.891867323512557
      ],
      [
        "▁rokmi",
        -9.892808067175515
      ],
      [
        "▁skutočnosti",
        -9.89398460739879
      ],
      [
        "kur",
        -9.894194992748002
      ],
      [
        "▁kvalitné",
        -9.894553696423532
      ],
      [
        "nut",
        -9.895177107377284
      ],
      [
        "▁čaká",
        -9.896357112196808
      ],
      [
        "kvalitu",
        -9.896874668597702
      ],
      [
        "▁stave",
        -9.896925419846555
      ],
      [
        "▁členov",
        -9.89723981719976
      ],
      [
        "zistil",
        -9.897448309784703
      ],
      [
        "▁našu",
        -9.897868077414255
      ],
      [
        "ďalej",
        -9.89855784264031
      ],
      [
        "▁smerom",
        -9.899589084074398
      ],
      [
        "▁prav",
        -9.899871739072005
      ],
      [
        "▁nižšie",
        -9.900179906379838
      ],
      [
        "▁tréner",
        -9.900377682235607
      ],
      [
        "môcť",
        -9.900652368179092
      ],
      [
        "▁efekt",
        -9.901861208199788
      ],
      [
        "▁jazyk",
        -9.902474198999696
      ],
      [
        "с",
        -9.9026641741461
      ],
      [
        "▁doteraz",
        -9.903019603963251
      ],
      [
        "dlo",
        -9.903233793895891
      ],
      [
        "▁gól",
        -9.903731422661997
      ],
      [
        "▁uvádza",
        -9.904340036475494
      ],
      [
        "▁such",
        -9.904579055284698
      ],
      [
        "▁nemajú",
        -9.904709183080524
      ],
      [
        "▁nechce",
        -9.9049986957654
      ],
      [
        "▁spoločne",
        -9.90539473312707
      ],
      [
        "čas",
        -9.905609354364485
      ],
      [
        "▁slovenská",
        -9.905781873486452
      ],
      [
        "▁obchod",
        -9.906161567686148
      ],
      [
        "▁dieťaťa",
        -9.906395392112614
      ],
      [
        "▁séria",
        -9.907186236716353
      ],
      [
        "▁voľb",
        -9.907413878609608
      ],
      [
        "▁pravidelne",
        -9.907553345266017
      ],
      [
        "plniť",
        -9.908720902186362
      ],
      [
        "júcich",
        -9.90874778355096
      ],
      [
        "▁prác",
        -9.90891375543514
      ],
      [
        "▁post",
        -9.909774746958544
      ],
      [
        "▁jednom",
        -9.91115619808683
      ],
      [
        "▁pani",
        -9.911323816586766
      ],
      [
        "▁krajín",
        -9.91140145382928
      ],
      [
        "▁poriadku",
        -9.91192331959985
      ],
      [
        "▁účely",
        -9.912195140222105
      ],
      [
        "momentálne",
        -9.912369609573677
      ],
      [
        "tin",
        -9.912553168690412
      ],
      [
        "zrejme",
        -9.9126661691505
      ],
      [
        "▁prichádza",
        -9.913702241518411
      ],
      [
        "▁kg",
        -9.9144539338743
      ],
      [
        "▁ťažko",
        -9.915086213930504
      ],
      [
        "▁najväčší",
        -9.9151510897181
      ],
      [
        "ier",
        -9.915713612662824
      ],
      [
        "▁sama",
        -9.915763111886202
      ],
      [
        "▁žien",
        -9.91661234012274
      ],
      [
        "cej",
        -9.916648814180157
      ],
      [
        "eme",
        -9.917669822459306
      ],
      [
        "▁nos",
        -9.918442603042047
      ],
      [
        "▁obe",
        -9.918550716889978
      ],
      [
        "chceli",
        -9.919312693967305
      ],
      [
        "▁výmen",
        -9.919802315601608
      ],
      [
        "▁stránka",
        -9.920952350073328
      ],
      [
        "▁skupina",
        -9.92170513894668
      ],
      [
        "▁dane",
        -9.922425885899404
      ],
      [
        "▁očakáva",
        -9.922613166534187
      ],
      [
        "und",
        -9.923012163967536
      ],
      [
        "▁vedel",
        -9.923984092559143
      ],
      [
        "any",
        -9.924500536580652
      ],
      [
        "▁michal",
        -9.924833095138196
      ],
      [
        "vin",
        -9.925054724873055
      ],
      [
        "mont",
        -9.925373776783
      ],
      [
        "rus",
        -9.925903307500317
      ],
      [
        "▁izba",
        -9.926262694413204
      ],
      [
        "nor",
        -9.926373045923723
      ],
      [
        "▁forme",
        -9.926411396709936
      ],
      [
        "dostali",
        -9.926554051979847
      ],
      [
        "▁pozornosť",
        -9.926718026453834
      ],
      [
        "▁buď",
        -9.92759822243278
      ],
      [
        "vieme",
        -9.927855437121822
      ],
      [
        "plat",
        -9.927878735327484
      ],
      [
        "dňoch",
        -9.927955625495237
      ],
      [
        "ari",
        -9.927992544657542
      ],
      [
        "art",
        -9.928076932781304
      ],
      [
        "▁konania",
        -9.928744794030193
      ],
      [
        "▁veľkosti",
        -9.928980235569558
      ],
      [
        "iteľ",
        -9.931201013147229
      ],
      [
        "rel",
        -9.93130134767554
      ],
      [
        "▁mier",
        -9.932558953811789
      ],
      [
        "rit",
        -9.933031528256036
      ],
      [
        "namiesto",
        -9.933697511794229
      ],
      [
        "<",
        -9.933977777230028
      ],
      [
        "▁pravda",
        -9.934186591106076
      ],
      [
        "mohlo",
        -9.934341817139698
      ],
      [
        "dnes",
        -9.934742879005668
      ],
      [
        "▁vyrobené",
        -9.934808778185475
      ],
      [
        "por",
        -9.9353856821591
      ],
      [
        "▁domác",
        -9.93544916269371
      ],
      [
        "▁rýchle",
        -9.935736578263432
      ],
      [
        "▁pomôže",
        -9.936991600753958
      ],
      [
        "▁turnaj",
        -9.937028180110136
      ],
      [
        "▁žena",
        -9.937037108570372
      ],
      [
        "▁slovo",
        -9.937913453993698
      ],
      [
        "▁týždne",
        -9.938043044490527
      ],
      [
        "▁zvolen",
        -9.938660085520649
      ],
      [
        "konať",
        -9.938697030937869
      ],
      [
        "▁záujm",
        -9.938972794340064
      ],
      [
        "▁klub",
        -9.939019554443195
      ],
      [
        "začať",
        -9.939110535653455
      ],
      [
        "ťaž",
        -9.93914001623908
      ],
      [
        "hli",
        -9.939188245796124
      ],
      [
        "▁metrov",
        -9.939885041244288
      ],
      [
        "nky",
        -9.939921439796178
      ],
      [
        "čku",
        -9.940045219492378
      ],
      [
        "▁zmene",
        -9.940304206848952
      ],
      [
        "▁iným",
        -9.942588422963365
      ],
      [
        "▁zobraziť",
        -9.94331940033136
      ],
      [
        "▁býva",
        -9.94442567762309
      ],
      [
        "▁požiadavky",
        -9.944514338638555
      ],
      [
        "▁odpoveď",
        -9.944581949302842
      ],
      [
        "prípadoch",
        -9.94640554238686
      ],
      [
        "▁materiálov",
        -9.947644352506826
      ],
      [
        "▁septembra",
        -9.947724759027489
      ],
      [
        "pal",
        -9.948321862652335
      ],
      [
        "alo",
        -9.949963236609031
      ],
      [
        "▁práv",
        -9.950077296632614
      ],
      [
        "hrad",
        -9.950257023662116
      ],
      [
        "▁firma",
        -9.950380922042244
      ],
      [
        "▁konkrétne",
        -9.950428450862274
      ],
      [
        "ický",
        -9.950901950723846
      ],
      [
        "land",
        -9.950923553034498
      ],
      [
        "▁chceme",
        -9.951299670993317
      ],
      [
        "▁zdarma",
        -9.9528405421075
      ],
      [
        "ujúce",
        -9.953367553805016
      ],
      [
        "▁nárok",
        -9.953453574961523
      ],
      [
        "▁nemusí",
        -9.955836765555253
      ],
      [
        "posledných",
        -9.956800721378132
      ],
      [
        "▁konca",
        -9.957066525374186
      ],
      [
        "▁pôvodn",
        -9.957500279228356
      ],
      [
        "▁budúcnosti",
        -9.957536767531163
      ],
      [
        "▁obyvateľov",
        -9.957738801268029
      ],
      [
        "znení",
        -9.958324204923866
      ],
      [
        "▁zmluv",
        -9.958418691532204
      ],
      [
        "▁strie",
        -9.959565273730057
      ],
      [
        "▁bodov",
        -9.960664509399717
      ],
      [
        "ako",
        -9.961298745318627
      ],
      [
        "▁základné",
        -9.962405228425604
      ],
      [
        "res",
        -9.96296034116338
      ],
      [
        "▁najprv",
        -9.963056160788616
      ],
      [
        "▁han",
        -9.963543783920931
      ],
      [
        "skú",
        -9.963716634119844
      ],
      [
        "▁bolesti",
        -9.96494462068667
      ],
      [
        "vid",
        -9.965017662354168
      ],
      [
        "▁vytvára",
        -9.965372804050272
      ],
      [
        "čer",
        -9.965527935638306
      ],
      [
        "lín",
        -9.965901710894446
      ],
      [
        "▁novo",
        -9.965926971808951
      ],
      [
        "▁rodičov",
        -9.96621090094935
      ],
      [
        "árov",
        -9.967361464978886
      ],
      [
        "▁úradu",
        -9.967464544043986
      ],
      [
        "▁vedie",
        -9.968191365539472
      ],
      [
        "▁charakter",
        -9.96842813474953
      ],
      [
        "▁vzduchu",
        -9.969290378645765
      ],
      [
        "alebo",
        -9.969339900500636
      ],
      [
        "musíme",
        -9.971178947982182
      ],
      [
        "ľuďom",
        -9.971574590030698
      ],
      [
        "cich",
        -9.971605251216408
      ],
      [
        "▁pracovať",
        -9.971797729889769
      ],
      [
        "▁osobitn",
        -9.972171771901245
      ],
      [
        "▁škôl",
        -9.972173296799497
      ],
      [
        "▁národ",
        -9.972199385898724
      ],
      [
        "▁základ",
        -9.9722287549713
      ],
      [
        "veľkú",
        -9.9728654512763
      ],
      [
        "dal",
        -9.97293440256758
      ],
      [
        "▁sum",
        -9.973317998215627
      ],
      [
        "▁vzor",
        -9.973717645901942
      ],
      [
        "ria",
        -9.974550126701375
      ],
      [
        "▁moment",
        -9.974630429726574
      ],
      [
        "zmeniť",
        -9.974848162371536
      ],
      [
        "▁krém",
        -9.974885597997089
      ],
      [
        "fr",
        -9.975193540018564
      ],
      [
        "▁odbor",
        -9.975430031664304
      ],
      [
        "▁úspech",
        -9.97558663232945
      ],
      [
        "▁podiel",
        -9.975829298404689
      ],
      [
        "rka",
        -9.976369635180314
      ],
      [
        "▁jednou",
        -9.976622034450225
      ],
      [
        "▁nedá",
        -9.976955848943062
      ],
      [
        "▁ostrov",
        -9.977724934501582
      ],
      [
        "▁najlepší",
        -9.978307369398264
      ],
      [
        "ické",
        -9.978560882921643
      ],
      [
        "kin",
        -9.978921375493876
      ],
      [
        "▁siete",
        -9.979242836530572
      ],
      [
        "▁podobné",
        -9.979573383997506
      ],
      [
        "▁adresu",
        -9.979601493025214
      ],
      [
        "▁akoby",
        -9.97962259359596
      ],
      [
        "riešiť",
        -9.98086225498978
      ],
      [
        "rast",
        -9.981694534026994
      ],
      [
        "▁krvi",
        -9.98170443493365
      ],
      [
        "bil",
        -9.982066949806066
      ],
      [
        "ovce",
        -9.982509162102804
      ],
      [
        "▁celkovo",
        -9.98259720568712
      ],
      [
        "▁vozidla",
        -9.98263420348327
      ],
      [
        "▁mája",
        -9.984043291921749
      ],
      [
        "tre",
        -9.984232685577426
      ],
      [
        "zmenil",
        -9.984626399680076
      ],
      [
        "kor",
        -9.984853537997976
      ],
      [
        "▁spojené",
        -9.986166246353656
      ],
      [
        "▁papier",
        -9.986265763593918
      ],
      [
        "▁predávajúci",
        -9.986413995785156
      ],
      [
        "▁dáva",
        -9.986501340616728
      ],
      [
        "▁domáce",
        -9.986761647024109
      ],
      [
        "íc",
        -9.98718684845269
      ],
      [
        "▁prijíma",
        -9.98769456572574
      ],
      [
        "▁svetlo",
        -9.987753013018883
      ],
      [
        "▁pravdepodobne",
        -9.988090940974084
      ],
      [
        "▁dodáva",
        -9.988323197435069
      ],
      [
        "▁novembra",
        -9.988647999570158
      ],
      [
        "držať",
        -9.98883857361048
      ],
      [
        "▁znova",
        -9.990106213797633
      ],
      [
        "ovaných",
        -9.99141927059226
      ],
      [
        "▁val",
        -9.992015151101128
      ],
      [
        "▁občas",
        -9.992509241266166
      ],
      [
        "▁dome",
        -9.992556694346543
      ],
      [
        "▁priateľov",
        -9.99315215925451
      ],
      [
        "▁odkaz",
        -9.993182767713952
      ],
      [
        "▁pobyt",
        -9.994065826620671
      ],
      [
        "▁ministerstvo",
        -9.995708329822838
      ],
      [
        "ruš",
        -9.996131774900968
      ],
      [
        "▁krásny",
        -9.997597130473055
      ],
      [
        "▁odsek",
        -9.997941818787288
      ],
      [
        "▁známe",
        -9.99849450266008
      ],
      [
        "▁riaditeľ",
        -9.99934115305143
      ],
      [
        "▁prezident",
        -10.000733020948612
      ],
      [
        "▁vníma",
        -10.000865504125832
      ],
      [
        "▁príspevok",
        -10.001282403235257
      ],
      [
        "ien",
        -10.002358134818142
      ],
      [
        "▁európe",
        -10.00265153701402
      ],
      [
        "▁mladých",
        -10.003314065595028
      ],
      [
        "▁funguje",
        -10.003359041238204
      ],
      [
        "▁víťaz",
        -10.003378667886691
      ],
      [
        "▁ved",
        -10.003851116439796
      ],
      [
        "▁obdobia",
        -10.003877017093217
      ],
      [
        "▁var",
        -10.003914996354204
      ],
      [
        "▁vzniku",
        -10.005178669851812
      ],
      [
        "▁miliónov",
        -10.006357638461738
      ],
      [
        "októbra",
        -10.006426214763213
      ],
      [
        "hrá",
        -10.006447609734298
      ],
      [
        "kop",
        -10.00701064095236
      ],
      [
        "▁nákup",
        -10.007689786576044
      ],
      [
        "▁rozmer",
        -10.007811256890932
      ],
      [
        "▁podujatia",
        -10.007928352235382
      ],
      [
        "▁znovu",
        -10.008412782169884
      ],
      [
        "han",
        -10.00908946767166
      ],
      [
        "▁nebola",
        -10.009957351222887
      ],
      [
        "tvor",
        -10.010013074641028
      ],
      [
        "▁ťažké",
        -10.01118970686906
      ],
      [
        "▁stalo",
        -10.01158754864722
      ],
      [
        "jasné",
        -10.011940055108976
      ],
      [
        "▁sprav",
        -10.012143623999904
      ],
      [
        "▁info",
        -10.012646944423944
      ],
      [
        "bro",
        -10.012729768298612
      ],
      [
        "▁hore",
        -10.013869548978011
      ],
      [
        "gr",
        -10.014375790231878
      ],
      [
        "dre",
        -10.01462867248078
      ],
      [
        "▁aplikácie",
        -10.014670498948467
      ],
      [
        "národnej",
        -10.014794328585577
      ],
      [
        "▁toľko",
        -10.015037587118668
      ],
      [
        "▁písomn",
        -10.01532259848235
      ],
      [
        "▁dvere",
        -10.016215911658945
      ],
      [
        "▁organizácie",
        -10.016641664365515
      ],
      [
        "▁blízkosti",
        -10.017289744664096
      ],
      [
        "▁výsledok",
        -10.018207963362736
      ],
      [
        "▁rozhodnutie",
        -10.018846036163575
      ],
      [
        "▁ponuke",
        -10.019336534955364
      ],
      [
        "cal",
        -10.019471151706558
      ],
      [
        "ham",
        -10.019530851685143
      ],
      [
        "▁rovnak",
        -10.019615084096376
      ],
      [
        "▁cieľ",
        -10.019617793043082
      ],
      [
        "▁priateľ",
        -10.019702403161878
      ],
      [
        "▁otec",
        -10.019756702240397
      ],
      [
        "ang",
        -10.021658971806527
      ],
      [
        "zer",
        -10.021706590247703
      ],
      [
        "▁jún",
        -10.02189874435452
      ],
      [
        "formou",
        -10.021961739185048
      ],
      [
        "▁niekoľkých",
        -10.022373822374858
      ],
      [
        "▁mon",
        -10.022922993275346
      ],
      [
        "▁snah",
        -10.023486537850149
      ],
      [
        "▁produktu",
        -10.024318369740852
      ],
      [
        "▁posledné",
        -10.025496872434346
      ],
      [
        "▁bl",
        -10.025613288713776
      ],
      [
        "▁oproti",
        -10.025793752888982
      ],
      [
        "cích",
        -10.025958810446056
      ],
      [
        "napr",
        -10.02644096321167
      ],
      [
        "lat",
        -10.026908149778585
      ],
      [
        "mnohé",
        -10.027532927016344
      ],
      [
        "▁účel",
        -10.027554659620618
      ],
      [
        "▁otázka",
        -10.02808802740355
      ],
      [
        "rok",
        -10.028637085342355
      ],
      [
        "▁top",
        -10.029071600889282
      ],
      [
        "▁neod",
        -10.029779932348928
      ],
      [
        "▁účinky",
        -10.030373249737536
      ],
      [
        "▁hru",
        -10.03051487176357
      ],
      [
        "daj",
        -10.030598435508912
      ],
      [
        "▁sekúnd",
        -10.031299960229337
      ],
      [
        "ation",
        -10.031349153247092
      ],
      [
        "÷",
        -10.031575867202914
      ],
      [
        "▁správu",
        -10.032139091122092
      ],
      [
        "▁najskôr",
        -10.032446568758596
      ],
      [
        "nos",
        -10.032558351905852
      ],
      [
        "▁koncert",
        -10.033162360940992
      ],
      [
        "▁spor",
        -10.033362573556335
      ],
      [
        "star",
        -10.035690643185722
      ],
      [
        "▁príspevkov",
        -10.036230835987602
      ],
      [
        "▁mini",
        -10.03692146745972
      ],
      [
        "▁hráčov",
        -10.037089989221192
      ],
      [
        "▁inter",
        -10.038051716075966
      ],
      [
        "stri",
        -10.038369248625816
      ],
      [
        "▁marca",
        -10.03854696895154
      ],
      [
        "šlo",
        -10.03956259389695
      ],
      [
        "▁hľadiska",
        -10.039771615338248
      ],
      [
        "pel",
        -10.040239600934584
      ],
      [
        "▁správ",
        -10.040820439555793
      ],
      [
        "▁doby",
        -10.040917983536872
      ],
      [
        "▁maj",
        -10.041560290219218
      ],
      [
        "▁dedin",
        -10.042591410232506
      ],
      [
        "▁víkend",
        -10.043132855211434
      ],
      [
        "▁rozsahu",
        -10.04329745603008
      ],
      [
        "▁niektorí",
        -10.043953163075937
      ],
      [
        "žiadny",
        -10.043965814155465
      ],
      [
        "mnohí",
        -10.04433081781958
      ],
      [
        "▁plus",
        -10.044338488534414
      ],
      [
        "▁príležitosti",
        -10.044712213787276
      ],
      [
        "počtu",
        -10.044949424187612
      ],
      [
        "plnenie",
        -10.044988969762008
      ],
      [
        "▁sed",
        -10.045602900053844
      ],
      [
        "▁hol",
        -10.045692168199972
      ],
      [
        "▁zemi",
        -10.04612738037361
      ],
      [
        "▁zdrojov",
        -10.046534212123316
      ],
      [
        "▁majiteľ",
        -10.046614871687186
      ],
      [
        "šti",
        -10.04694742429035
      ],
      [
        "ktorou",
        -10.047133980939732
      ],
      [
        "pred",
        -10.047959330069505
      ],
      [
        "▁displej",
        -10.048290947821815
      ],
      [
        "▁nájde",
        -10.048357385248403
      ],
      [
        "▁centre",
        -10.048809343737586
      ],
      [
        "▁výroby",
        -10.05003338115659
      ],
      [
        "▁dlhé",
        -10.050164557817356
      ],
      [
        "▁európy",
        -10.051414270970424
      ],
      [
        "▁oboch",
        -10.0516148904358
      ],
      [
        "niesť",
        -10.051736463212288
      ],
      [
        "▁výbor",
        -10.0520198145314
      ],
      [
        "rub",
        -10.052412776641214
      ],
      [
        "▁med",
        -10.052935211977642
      ],
      [
        "kar",
        -10.053202437615065
      ],
      [
        "kúp",
        -10.05321095983049
      ],
      [
        "pen",
        -10.053756535911086
      ],
      [
        "kliknite",
        -10.055045747323716
      ],
      [
        "▁projektov",
        -10.055054500369618
      ],
      [
        "▁výrobky",
        -10.05579700611707
      ],
      [
        "▁oblasť",
        -10.056714150749457
      ],
      [
        "vrátiť",
        -10.058678032368974
      ],
      [
        "▁vyše",
        -10.05870902324137
      ],
      [
        "▁vzťahu",
        -10.05877499490154
      ],
      [
        "▁vode",
        -10.05908187327011
      ],
      [
        "kres",
        -10.05966945394771
      ],
      [
        "isté",
        -10.0598045543442
      ],
      [
        "rez",
        -10.060366300641578
      ],
      [
        "drž",
        -10.060423220585603
      ],
      [
        "ročný",
        -10.06054555889054
      ],
      [
        "nul",
        -10.06059318914873
      ],
      [
        "duš",
        -10.06078904574681
      ],
      [
        "▁jedná",
        -10.061121869889504
      ],
      [
        "nakoľko",
        -10.061413929153169
      ],
      [
        "▁princíp",
        -10.062685859814255
      ],
      [
        "▁bal",
        -10.06474309922385
      ],
      [
        "▁návštev",
        -10.06481660544938
      ],
      [
        "tech",
        -10.064837717896056
      ],
      [
        "▁mobil",
        -10.064972998268894
      ],
      [
        "▁vodou",
        -10.06682436930398
      ],
      [
        "vhodná",
        -10.06715080363474
      ],
      [
        "▁starostlivosti",
        -10.0674424131073
      ],
      [
        "▁jednotlivé",
        -10.068382020115113
      ],
      [
        "▁odborn",
        -10.06842088649734
      ],
      [
        "tisíc",
        -10.069377743456212
      ],
      [
        "▁nachádzajú",
        -10.069553446729609
      ],
      [
        "▁objekt",
        -10.07022161121814
      ],
      [
        "▁odporúča",
        -10.07041079106784
      ],
      [
        "gram",
        -10.070635642185032
      ],
      [
        "▁neboli",
        -10.07090650256744
      ],
      [
        "▁nástroj",
        -10.071127859230694
      ],
      [
        "rát",
        -10.07124122142987
      ],
      [
        "▁spoj",
        -10.07199199804114
      ],
      [
        "▁čaj",
        -10.072014599803516
      ],
      [
        "▁ovláda",
        -10.07205739765584
      ],
      [
        "▁kategórie",
        -10.072397739457688
      ],
      [
        "dar",
        -10.0726498887396
      ],
      [
        "sociálnych",
        -10.072788859360562
      ],
      [
        "▁čaka",
        -10.073114514960956
      ],
      [
        "▁náhrad",
        -10.073404084246276
      ],
      [
        "gan",
        -10.073445145627195
      ],
      [
        "▁vodu",
        -10.073545669955667
      ],
      [
        "▁miestnosti",
        -10.074057716355414
      ],
      [
        "▁pen",
        -10.074539174000993
      ],
      [
        "▁vaša",
        -10.074865581177274
      ],
      [
        "▁priestoru",
        -10.075083729868329
      ],
      [
        "musím",
        -10.075208027162464
      ],
      [
        "▁brat",
        -10.075213059035429
      ],
      [
        "▁úroveň",
        -10.075670767198442
      ],
      [
        "▁mimoriadne",
        -10.075697127687276
      ],
      [
        "nica",
        -10.076107490455328
      ],
      [
        "▁kap",
        -10.076493116221585
      ],
      [
        "pozrite",
        -10.076730679285646
      ],
      [
        "▁potrebuje",
        -10.077007065643016
      ],
      [
        "▁viacer",
        -10.077130941179242
      ],
      [
        "▁profil",
        -10.077727726709314
      ],
      [
        "▁škod",
        -10.077765296293675
      ],
      [
        "slav",
        -10.078111123087448
      ],
      [
        "▁pc",
        -10.078124179163837
      ],
      [
        "▁montáž",
        -10.078313103558752
      ],
      [
        "que",
        -10.078847127697578
      ],
      [
        "▁podstate",
        -10.079269289997743
      ],
      [
        "▁vraj",
        -10.080873794697414
      ],
      [
        "▁ge",
        -10.080962874959324
      ],
      [
        "▁detsk",
        -10.081320887279364
      ],
      [
        "▁obnov",
        -10.081369670692997
      ],
      [
        "▁pomaly",
        -10.081954716108893
      ],
      [
        "▁štandard",
        -10.082366399051088
      ],
      [
        "sledovať",
        -10.082381197920784
      ],
      [
        "▁lak",
        -10.082384909223816
      ],
      [
        "▁hlavy",
        -10.082451427352533
      ],
      [
        "pln",
        -10.082791168547
      ],
      [
        "▁príchod",
        -10.08296011423302
      ],
      [
        "šou",
        -10.083800264362306
      ],
      [
        "svojimi",
        -10.084490281035286
      ],
      [
        "ktorému",
        -10.084790650358784
      ],
      [
        "chvíľu",
        -10.08486392105428
      ],
      [
        "▁spolupráci",
        -10.084899827441156
      ],
      [
        "▁posledný",
        -10.086058922592835
      ],
      [
        "▁priestory",
        -10.08609205855292
      ],
      [
        "▁fotografie",
        -10.08661839859659
      ],
      [
        "int",
        -10.087192934854968
      ],
      [
        "▁ňu",
        -10.08758643136112
      ],
      [
        "tur",
        -10.089473728239849
      ],
      [
        "▁ponuku",
        -10.089565484672212
      ],
      [
        "▁súbor",
        -10.089619152269362
      ],
      [
        "▁hrať",
        -10.089958033461397
      ],
      [
        "▁známy",
        -10.090119748904264
      ],
      [
        "▁nevedel",
        -10.090189276602338
      ],
      [
        "▁krát",
        -10.090600428074945
      ],
      [
        "▁okamžite",
        -10.09105995097206
      ],
      [
        "mor",
        -10.092192765811417
      ],
      [
        "ng",
        -10.093195548218326
      ],
      [
        "▁oni",
        -10.093954837072944
      ],
      [
        "log",
        -10.094470501513348
      ],
      [
        "rán",
        -10.094801166667164
      ],
      [
        "itu",
        -10.09489341707581
      ],
      [
        "▁prišli",
        -10.0956275499141
      ],
      [
        "▁spája",
        -10.09654844089416
      ],
      [
        "▁povrch",
        -10.096676833093248
      ],
      [
        "ö",
        -10.097194717026706
      ],
      [
        "▁skvel",
        -10.097657866794776
      ],
      [
        "istý",
        -10.097664348242988
      ],
      [
        "▁režim",
        -10.09862460122708
      ],
      [
        "stva",
        -10.098852381913174
      ],
      [
        "uviedol",
        -10.100118939212162
      ],
      [
        "ochrane",
        -10.10079274591469
      ],
      [
        "▁polo",
        -10.102063524875131
      ],
      [
        "▁blízk",
        -10.103186444852348
      ],
      [
        "▁google",
        -10.10379548758904
      ],
      [
        "prvého",
        -10.1042338503057
      ],
      [
        "▁vhodn",
        -10.104445435937151
      ],
      [
        "▁wi",
        -10.104606469440776
      ],
      [
        "▁opatrenia",
        -10.10525093052441
      ],
      [
        "mojej",
        -10.106317588823217
      ],
      [
        "▁kurz",
        -10.107079658774856
      ],
      [
        "▁tretí",
        -10.107094333840625
      ],
      [
        "▁ce",
        -10.109617261033396
      ],
      [
        "▁výška",
        -10.110231618626514
      ],
      [
        "▁vysoké",
        -10.1104679448038
      ],
      [
        "ovými",
        -10.110714795268008
      ],
      [
        "▁otvára",
        -10.110816336791382
      ],
      [
        "▁kolo",
        -10.111978788605086
      ],
      [
        "▁posledn",
        -10.112039194249482
      ],
      [
        "rot",
        -10.112051101819226
      ],
      [
        "▁vyberte",
        -10.112251230842324
      ],
      [
        "▁hlavné",
        -10.112583261216296
      ],
      [
        "▁máj",
        -10.113400401796996
      ],
      [
        "voj",
        -10.11351901928744
      ],
      [
        "bur",
        -10.11411750866048
      ],
      [
        "ther",
        -10.114199289162118
      ],
      [
        "▁vlastný",
        -10.114908817985258
      ],
      [
        "ü",
        -10.115609097743484
      ],
      [
        "▁proste",
        -10.115710371524685
      ],
      [
        "▁rozhodnutia",
        -10.115889022475892
      ],
      [
        "▁batérie",
        -10.116917406231993
      ],
      [
        "museli",
        -10.117068204048302
      ],
      [
        "▁ponúk",
        -10.117322715115266
      ],
      [
        "ill",
        -10.11779508973392
      ],
      [
        "venovať",
        -10.11827111573578
      ],
      [
        "ard",
        -10.118706689210562
      ],
      [
        "▁ideálne",
        -10.118719873822624
      ],
      [
        "▁prebieha",
        -10.11894673435015
      ],
      [
        "ř",
        -10.118957468901934
      ],
      [
        "▁priestorov",
        -10.119032830231625
      ],
      [
        "▁žiadosť",
        -10.119642334368791
      ],
      [
        "▁chráni",
        -10.1210068673524
      ],
      [
        "musieť",
        -10.12172551539684
      ],
      [
        "▁zníži",
        -10.122317801037177
      ],
      [
        "▁štúdia",
        -10.122459774791686
      ],
      [
        "meniť",
        -10.122894384034044
      ],
      [
        "álne",
        -10.122900684732477
      ],
      [
        "▁kol",
        -10.12314620545916
      ],
      [
        "čin",
        -10.123399166402342
      ],
      [
        "nemali",
        -10.123652886346804
      ],
      [
        "júci",
        -10.123771762968708
      ],
      [
        "▁stáva",
        -10.123831099602452
      ],
      [
        "izmu",
        -10.123833607353204
      ],
      [
        "▁plne",
        -10.12408956942055
      ],
      [
        "▁piatok",
        -10.12476568449041
      ],
      [
        "▁príčin",
        -10.125226768244158
      ],
      [
        "ickej",
        -10.12535284048086
      ],
      [
        "▁rodičia",
        -10.125488852987171
      ],
      [
        "▁slúži",
        -10.12589959868868
      ],
      [
        "beh",
        -10.1260149524069
      ],
      [
        "lon",
        -10.126443612195317
      ],
      [
        "▁druhom",
        -10.12645753946433
      ],
      [
        "▁skvelý",
        -10.127333151320189
      ],
      [
        "▁dostane",
        -10.12740299653048
      ],
      [
        "▁premiér",
        -10.127616033511668
      ],
      [
        "celá",
        -10.127828217671809
      ],
      [
        "nedeľu",
        -10.127837492154784
      ],
      [
        "▁peňazí",
        -10.128372041892202
      ],
      [
        "stanú",
        -10.128933452721638
      ],
      [
        "brať",
        -10.12910810017821
      ],
      [
        "▁ochorenia",
        -10.129111487944549
      ],
      [
        "▁štart",
        -10.129199774430193
      ],
      [
        "▁útok",
        -10.12949970451242
      ],
      [
        "daný",
        -10.129628212192562
      ],
      [
        "▁celkov",
        -10.13064438857388
      ],
      [
        "▁urobil",
        -10.13153216699658
      ],
      [
        "▁formulár",
        -10.13169494520966
      ],
      [
        "▁láska",
        -10.132230240741206
      ],
      [
        "ino",
        -10.13236251059194
      ],
      [
        "dúfam",
        -10.133015698860056
      ],
      [
        "áš",
        -10.133480197093323
      ],
      [
        "▁žiadosti",
        -10.133524735119984
      ],
      [
        "▁prešov",
        -10.133679374306944
      ],
      [
        "ĺ",
        -10.13449258967864
      ],
      [
        "▁kan",
        -10.135099448171232
      ],
      [
        "▁rast",
        -10.135752562634558
      ],
      [
        "▁odporúčame",
        -10.135878267049232
      ],
      [
        "▁mlad",
        -10.13592512271575
      ],
      [
        "▁kultúry",
        -10.135965396255695
      ],
      [
        "pracovných",
        -10.136326632807846
      ],
      [
        "▁dôsledku",
        -10.136668947075783
      ],
      [
        "▁stroj",
        -10.136855467228774
      ],
      [
        "rak",
        -10.137350960335526
      ],
      [
        "▁pas",
        -10.137541068336809
      ],
      [
        "šia",
        -10.137912255184272
      ],
      [
        "▁dlhšie",
        -10.137926781868702
      ],
      [
        "▁bezpečnosť",
        -10.138055628433651
      ],
      [
        "jazd",
        -10.138119005144372
      ],
      [
        "▁aktívne",
        -10.13818994924872
      ],
      [
        "▁povinnosť",
        -10.138207404829116
      ],
      [
        "▁pla",
        -10.138686055737622
      ],
      [
        "ško",
        -10.139117081705717
      ],
      [
        "▁maximálne",
        -10.1393511590652
      ],
      [
        "▁cas",
        -10.139426211754458
      ],
      [
        "▁max",
        -10.139584110320587
      ],
      [
        "kova",
        -10.139998421928029
      ],
      [
        "▁rez",
        -10.140098704473331
      ],
      [
        "vali",
        -10.140258184351522
      ],
      [
        "til",
        -10.140272985418244
      ],
      [
        "▁zmena",
        -10.140388931458638
      ],
      [
        "ším",
        -10.1417419574172
      ],
      [
        "kal",
        -10.141971141792771
      ],
      [
        "▁výrobkov",
        -10.142241222972304
      ],
      [
        "▁výstup",
        -10.143850997024249
      ],
      [
        "▁album",
        -10.143875344202591
      ],
      [
        "▁sen",
        -10.143925922061504
      ],
      [
        "ifik",
        -10.144124677589334
      ],
      [
        "▁látok",
        -10.14469147378584
      ],
      [
        "niekde",
        -10.14470333660181
      ],
      [
        "▁stavu",
        -10.145586205758622
      ],
      [
        "▁máš",
        -10.145771059627718
      ],
      [
        "▁oprav",
        -10.14593571910613
      ],
      [
        "▁kostol",
        -10.146526636485577
      ],
      [
        "▁ďalši",
        -10.1466543655522
      ],
      [
        "▁pracuje",
        -10.14714551194624
      ],
      [
        "▁fo",
        -10.147405534757448
      ],
      [
        "ári",
        -10.147803999449923
      ],
      [
        "niť",
        -10.148072615589651
      ],
      [
        "▁tisíc",
        -10.148225382146371
      ],
      [
        "▁povinnosti",
        -10.148832406310763
      ],
      [
        "▁most",
        -10.149573199904331
      ],
      [
        "▁nevie",
        -10.150234155326835
      ],
      [
        "nému",
        -10.151082570022156
      ],
      [
        "▁krok",
        -10.15127732242416
      ],
      [
        "došlo",
        -10.151290342055978
      ],
      [
        "▁dostupné",
        -10.151869214628922
      ],
      [
        "kri",
        -10.151918231422254
      ],
      [
        "▁šp",
        -10.152450596154408
      ],
      [
        "▁bla",
        -10.15288120862626
      ],
      [
        "$",
        -10.153748744500934
      ],
      [
        "▁pokračovať",
        -10.15379334235255
      ],
      [
        "izmus",
        -10.15401851896
      ],
      [
        "▁robot",
        -10.154174536130258
      ],
      [
        "▁stránku",
        -10.154596472902425
      ],
      [
        "vtedy",
        -10.155247105109895
      ],
      [
        "▁dôvodov",
        -10.155610544345432
      ],
      [
        "▁festival",
        -10.155957555538476
      ],
      [
        "▁druhy",
        -10.155980535157754
      ],
      [
        "▁ďalš",
        -10.155997934136668
      ],
      [
        "daní",
        -10.156208471617427
      ],
      [
        "con",
        -10.156381266274098
      ],
      [
        "▁areál",
        -10.156790120064466
      ],
      [
        "▁stál",
        -10.156986911554306
      ],
      [
        "ŕ",
        -10.15718443172501
      ],
      [
        "čan",
        -10.157475494452877
      ],
      [
        "▁štvrt",
        -10.157885238383647
      ],
      [
        "▁výstav",
        -10.157891554418416
      ],
      [
        "▁koniec",
        -10.158642395758834
      ],
      [
        "▁príjemn",
        -10.15901203921476
      ],
      [
        "slo",
        -10.159288040867894
      ],
      [
        "▁pokoj",
        -10.159631087157653
      ],
      [
        "▁rozmery",
        -10.159891199826086
      ],
      [
        "▁schopnosť",
        -10.159929678425108
      ],
      [
        "▁́",
        -10.160031784688236
      ],
      [
        "▁kategórii",
        -10.160409222208802
      ],
      [
        "▁zb",
        -10.160630863201218
      ],
      [
        "eľ",
        -10.16063184273606
      ],
      [
        "vanie",
        -10.16099009408284
      ],
      [
        "jsť",
        -10.161742586303657
      ],
      [
        "▁preklad",
        -10.162176469809106
      ],
      [
        "▁div",
        -10.162697128090263
      ],
      [
        "▁kríž",
        -10.162866201653904
      ],
      [
        "▁detail",
        -10.163997363743604
      ],
      [
        "▁závis",
        -10.165670008653194
      ],
      [
        "takisto",
        -10.16576235492606
      ],
      [
        "▁tvorí",
        -10.1658849080065
      ],
      [
        "▁vychádza",
        -10.166054669143175
      ],
      [
        "▁podporuje",
        -10.166336674138629
      ],
      [
        "▁daňov",
        -10.167024951383732
      ],
      [
        "▁tvrd",
        -10.167112211054274
      ],
      [
        "▁obsahu",
        -10.167462434511128
      ],
      [
        "počíta",
        -10.167480092198906
      ],
      [
        "▁sily",
        -10.16769687246839
      ],
      [
        "▁videl",
        -10.168435469284493
      ],
      [
        "▁monitor",
        -10.168622216887607
      ],
      [
        "▁krajine",
        -10.168956452282362
      ],
      [
        "▁väčšie",
        -10.16922088284084
      ],
      [
        "naďalej",
        -10.169292920001268
      ],
      [
        "oper",
        -10.169339487442478
      ],
      [
        "▁prostriedky",
        -10.16954040128202
      ],
      [
        "inu",
        -10.170046300973803
      ],
      [
        "skych",
        -10.170237788382806
      ],
      [
        "▁nesmie",
        -10.170337131255332
      ],
      [
        "pie",
        -10.171306325191578
      ],
      [
        "▁von",
        -10.171373185456304
      ],
      [
        "▁pokožku",
        -10.172393278467666
      ],
      [
        "▁auta",
        -10.172826681870022
      ],
      [
        "ide",
        -10.174758021845836
      ],
      [
        "▁nohy",
        -10.174774310729113
      ],
      [
        "▁vážne",
        -10.175344044580216
      ],
      [
        "die",
        -10.175366724056502
      ],
      [
        "júna",
        -10.176439293797564
      ],
      [
        "▁zvyk",
        -10.176523242568445
      ],
      [
        "▁odstrániť",
        -10.176637024526457
      ],
      [
        "zrušiť",
        -10.177122331717056
      ],
      [
        "®",
        -10.177302424368394
      ],
      [
        "▁hrá",
        -10.177326506919425
      ],
      [
        "▁výrobu",
        -10.177611205905988
      ],
      [
        "▁zmenu",
        -10.17791885391648
      ],
      [
        "▁otázku",
        -10.178034104060142
      ],
      [
        "▁súper",
        -10.178123276607977
      ],
      [
        "hovoril",
        -10.178482744226937
      ],
      [
        "▁pravidlá",
        -10.179557806990198
      ],
      [
        "nka",
        -10.180030409279937
      ],
      [
        "▁všade",
        -10.180171538767636
      ],
      [
        "ble",
        -10.180448348149705
      ],
      [
        "▁jedlo",
        -10.180582701125218
      ],
      [
        "▁staré",
        -10.180599007224302
      ],
      [
        "▁trest",
        -10.180818016969743
      ],
      [
        "rozhodol",
        -10.181196340088086
      ],
      [
        "▁určit",
        -10.181827449675636
      ],
      [
        "▁vznik",
        -10.182096500899396
      ],
      [
        "▁zbor",
        -10.18313049977074
      ],
      [
        "▁zdá",
        -10.184734871582092
      ],
      [
        "▁bohat",
        -10.184763496401455
      ],
      [
        "pat",
        -10.185193369785884
      ],
      [
        "hovoriť",
        -10.185457353391785
      ],
      [
        "▁body",
        -10.185511529956711
      ],
      [
        "▁druhá",
        -10.186086518407874
      ],
      [
        "cestou",
        -10.186267082536585
      ],
      [
        "dokážu",
        -10.186829373417568
      ],
      [
        "▁pomoci",
        -10.187135744021392
      ],
      [
        "▁kamarát",
        -10.187427177802777
      ],
      [
        "▁let",
        -10.187815487723135
      ],
      [
        "▁možností",
        -10.187890057295167
      ],
      [
        "ičiek",
        -10.18793153175688
      ],
      [
        "▁účet",
        -10.187963223564594
      ],
      [
        "▁rýchlosť",
        -10.188459812850232
      ],
      [
        "▁tvoria",
        -10.188893134633032
      ],
      [
        "▁príležitosť",
        -10.188998040726004
      ],
      [
        "и",
        -10.189383141716892
      ],
      [
        "▁zabezpečiť",
        -10.189842034882158
      ],
      [
        "▁zmysel",
        -10.190315080903291
      ],
      [
        "ovacie",
        -10.19032305780377
      ],
      [
        "▁deťom",
        -10.190373423494496
      ],
      [
        "▁typy",
        -10.19065762718104
      ],
      [
        "▁používajú",
        -10.190773803025952
      ],
      [
        "základných",
        -10.191778395732502
      ],
      [
        "▁stred",
        -10.19197009694098
      ],
      [
        "▁ponuka",
        -10.192134979184775
      ],
      [
        "stal",
        -10.192397016730029
      ],
      [
        "▁najmenej",
        -10.192460619283668
      ],
      [
        "telia",
        -10.192835636902682
      ],
      [
        "▁minister",
        -10.19329920105703
      ],
      [
        "▁futbal",
        -10.193509810460164
      ],
      [
        "▁zaujímavý",
        -10.194307873714456
      ],
      [
        "▁mierne",
        -10.19432466629078
      ],
      [
        "▁ministerstva",
        -10.194393864567695
      ],
      [
        "▁všeobecne",
        -10.195241390658524
      ],
      [
        "prvých",
        -10.195245526533247
      ],
      [
        "▁klubu",
        -10.19665268053116
      ],
      [
        "▁prechod",
        -10.196721851784291
      ],
      [
        "nechať",
        -10.196868642291166
      ],
      [
        "vet",
        -10.19695443765129
      ],
      [
        "úlohu",
        -10.197047828366586
      ],
      [
        "žit",
        -10.197124275370046
      ],
      [
        "des",
        -10.197610022004405
      ],
      [
        "▁snaží",
        -10.198200471372402
      ],
      [
        "jde",
        -10.198335318414223
      ],
      [
        "▁únie",
        -10.1983847247102
      ],
      [
        "cítiť",
        -10.19848939541544
      ],
      [
        "▁server",
        -10.19922430558942
      ],
      [
        "▁tepl",
        -10.19981158450538
      ],
      [
        "vysokej",
        -10.20012500541375
      ],
      [
        "▁vojensk",
        -10.20067400874409
      ],
      [
        "▁stane",
        -10.200915989823088
      ],
      [
        "▁predmet",
        -10.201221909356056
      ],
      [
        "ací",
        -10.201717312099232
      ],
      [
        "▁automaticky",
        -10.202296813427402
      ],
      [
        "▁portál",
        -10.20273058059733
      ],
      [
        "▁najčastejšie",
        -10.202799030650931
      ],
      [
        "🙂",
        -10.2031095125492
      ],
      [
        "▁vyžaduje",
        -10.2039532292478
      ],
      [
        "▁tréning",
        -10.20400369571771
      ],
      [
        "písal",
        -10.20404055816255
      ],
      [
        "▁vopred",
        -10.204207306108088
      ],
      [
        "▁desať",
        -10.204580417157242
      ],
      [
        "▁ďalším",
        -10.205061907889467
      ],
      [
        "bud",
        -10.205694669357744
      ],
      [
        "▁kameň",
        -10.205761725859745
      ],
      [
        "▁augusta",
        -10.206253282845992
      ],
      [
        "▁rozvíja",
        -10.207539054793434
      ],
      [
        "▁sklo",
        -10.208720828502113
      ],
      [
        "íkov",
        -10.209662061898058
      ],
      [
        "▁slovenské",
        -10.209774800725716
      ],
      [
        "▁smrti",
        -10.210347700638309
      ],
      [
        "▁čísla",
        -10.210634001252824
      ],
      [
        "▁používateľ",
        -10.210701364063716
      ],
      [
        "▁poriadne",
        -10.210787625933246
      ],
      [
        "▁rozhovor",
        -10.211398649739754
      ],
      [
        "▁slab",
        -10.211791076836429
      ],
      [
        "ložiť",
        -10.213651745637256
      ],
      [
        "▁odpor",
        -10.214171421559106
      ],
      [
        "▁rám",
        -10.214184891710524
      ],
      [
        "▁riziko",
        -10.21457341269926
      ],
      [
        "▁dosiahnuť",
        -10.214604367077088
      ],
      [
        "▁prvýkrát",
        -10.215503742124053
      ],
      [
        "▁pracovné",
        -10.216034802832674
      ],
      [
        "▁hr",
        -10.216364179706751
      ],
      [
        "▁šesť",
        -10.216775574789692
      ],
      [
        "▁prenos",
        -10.216867756110132
      ],
      [
        "▁predseda",
        -10.217276792272871
      ],
      [
        "▁nízk",
        -10.217365728821632
      ],
      [
        "gor",
        -10.217945401611924
      ],
      [
        "plný",
        -10.218317019448458
      ],
      [
        "nite",
        -10.218446992639445
      ],
      [
        "▁vrchol",
        -10.218702281010687
      ],
      [
        "▁dokument",
        -10.220087394031898
      ],
      [
        "▁prúd",
        -10.220261305175814
      ],
      [
        "vit",
        -10.220810821440503
      ],
      [
        "▁značka",
        -10.220870237866317
      ],
      [
        "poslednej",
        -10.22114462626923
      ],
      [
        "ance",
        -10.221164265737146
      ],
      [
        "rozhodli",
        -10.221481831687347
      ],
      [
        "▁drevo",
        -10.221732183998766
      ],
      [
        "▁udalosti",
        -10.22196503645099
      ],
      [
        "▁fotky",
        -10.222316834471863
      ],
      [
        "nám",
        -10.223048186117426
      ],
      [
        "▁dostala",
        -10.223520129713968
      ],
      [
        "ujete",
        -10.224214429462137
      ],
      [
        "▁uskutočnil",
        -10.2253176388317
      ],
      [
        "▁druhov",
        -10.225524134938896
      ],
      [
        "bra",
        -10.225663546625269
      ],
      [
        "wi",
        -10.225715175253258
      ],
      [
        "ktor",
        -10.225908480723076
      ],
      [
        "▁študentov",
        -10.226021247401366
      ],
      [
        "inka",
        -10.22686167052261
      ],
      [
        "▁detské",
        -10.227290035649364
      ],
      [
        "▁vysoký",
        -10.227365720115118
      ],
      [
        "▁výhod",
        -10.227546385146958
      ],
      [
        "mier",
        -10.227910936700813
      ],
      [
        "▁leto",
        -10.228223090113753
      ],
      [
        "gh",
        -10.228817823968688
      ],
      [
        "▁prírody",
        -10.229571061667489
      ],
      [
        "▁veľkých",
        -10.23027304812962
      ],
      [
        "nejší",
        -10.230352140880733
      ],
      [
        "▁dopravy",
        -10.230990309009966
      ],
      [
        "nutné",
        -10.231078430636536
      ],
      [
        "▁umel",
        -10.231705130128391
      ],
      [
        "▁pracovn",
        -10.23175736779769
      ],
      [
        "▁zmes",
        -10.23240410068744
      ],
      [
        "bet",
        -10.232509658569668
      ],
      [
        "▁lásky",
        -10.23295279646821
      ],
      [
        "▁hudb",
        -10.23340208643278
      ],
      [
        "napokon",
        -10.233452625101258
      ],
      [
        "▁vlastnej",
        -10.233655398879351
      ],
      [
        "о",
        -10.233729040816865
      ],
      [
        "lar",
        -10.23392115855444
      ],
      [
        "▁pleti",
        -10.23394383279992
      ],
      [
        "▁filmov",
        -10.234426036586898
      ],
      [
        "▁súčasne",
        -10.235154280350162
      ],
      [
        "strednej",
        -10.23579823370519
      ],
      [
        "▁oblečenie",
        -10.2361160622591
      ],
      [
        "▁občanov",
        -10.23636506016754
      ],
      [
        "▁pekný",
        -10.236873274541704
      ],
      [
        "▁člensk",
        -10.237616139622496
      ],
      [
        "▁manžel",
        -10.23800100788062
      ],
      [
        "▁stretnutie",
        -10.23830969437606
      ],
      [
        "ukázal",
        -10.238635200457576
      ],
      [
        "▁zámer",
        -10.238690677194777
      ],
      [
        "▁dobro",
        -10.238891435324351
      ],
      [
        "▁internetov",
        -10.239060013510692
      ],
      [
        "boj",
        -10.239921327851002
      ],
      [
        "rac",
        -10.240010209269515
      ],
      [
        "výsledkom",
        -10.240198828793794
      ],
      [
        "íci",
        -10.240455482606317
      ],
      [
        "▁situácie",
        -10.240724861155163
      ],
      [
        "hlavným",
        -10.241208125381672
      ],
      [
        "▁tlak",
        -10.24170408680034
      ],
      [
        "▁zásob",
        -10.242497212965812
      ],
      [
        "▁dreva",
        -10.24302993494178
      ],
      [
        "▁dobrá",
        -10.244503951348554
      ],
      [
        "niekoho",
        -10.244547604831066
      ],
      [
        "tín",
        -10.244754441086553
      ],
      [
        "▁hal",
        -10.244936769041804
      ],
      [
        "plo",
        -10.2453165633847
      ],
      [
        "▁spojen",
        -10.245450897769748
      ],
      [
        "led",
        -10.246461808971606
      ],
      [
        "životného",
        -10.247211477434025
      ],
      [
        "skeho",
        -10.24772835327435
      ],
      [
        "ris",
        -10.248905241618749
      ],
      [
        "trošku",
        -10.249373160781037
      ],
      [
        "▁otvoren",
        -10.249598035235964
      ],
      [
        "stor",
        -10.249754471108472
      ],
      [
        "▁strana",
        -10.25035551360981
      ],
      [
        "▁základnej",
        -10.250556060666774
      ],
      [
        "▁nemu",
        -10.25082615877492
      ],
      [
        "▁sever",
        -10.251272989725162
      ],
      [
        "▁obchodu",
        -10.251295099494063
      ],
      [
        "nič",
        -10.25188544592048
      ],
      [
        "▁moj",
        -10.2520255174655
      ],
      [
        "▁pozitívne",
        -10.252507317131412
      ],
      [
        "▁bolesť",
        -10.25298930866122
      ],
      [
        "▁čierna",
        -10.253020517292562
      ],
      [
        "zen",
        -10.253167438906148
      ],
      [
        "hol",
        -10.25327292177114
      ],
      [
        "hel",
        -10.253598736815997
      ],
      [
        "▁klientov",
        -10.253698285941338
      ],
      [
        "▁domácnosti",
        -10.254524010752233
      ],
      [
        "krajinách",
        -10.254808857788214
      ],
      [
        "▁vek",
        -10.255325090765238
      ],
      [
        "▁bud",
        -10.255408797119408
      ],
      [
        "▁svalov",
        -10.255536891477236
      ],
      [
        "pla",
        -10.256728641355735
      ],
      [
        "väz",
        -10.256843557865247
      ],
      [
        "▁darček",
        -10.257202844518083
      ],
      [
        "▁pochádza",
        -10.257436282855188
      ],
      [
        "ička",
        -10.257468855680814
      ],
      [
        "▁zbytočn",
        -10.258344195712828
      ],
      [
        "▁pevn",
        -10.258540261459885
      ],
      [
        "▁klient",
        -10.258751182917417
      ],
      [
        "kách",
        -10.259110725930928
      ],
      [
        "júla",
        -10.259336315220152
      ],
      [
        "▁kapacit",
        -10.259536938318409
      ],
      [
        "▁pohľadu",
        -10.259768636410994
      ],
      [
        "▁para",
        -10.259896207728994
      ],
      [
        "▁stala",
        -10.260110570933184
      ],
      [
        "▁mieru",
        -10.260544950220927
      ],
      [
        "práv",
        -10.260976439632792
      ],
      [
        "nutie",
        -10.261114549859265
      ],
      [
        "mera",
        -10.261459774262704
      ],
      [
        "▁situácia",
        -10.261506543426904
      ],
      [
        "nová",
        -10.261703768498077
      ],
      [
        "▁výnimk",
        -10.26207447783024
      ],
      [
        "▁zne",
        -10.262081919893893
      ],
      [
        "stra",
        -10.262126757181544
      ],
      [
        "pir",
        -10.262325747117838
      ],
      [
        "pridať",
        -10.262512612602778
      ],
      [
        "▁zvyšuje",
        -10.262762007483923
      ],
      [
        "▁zvyčajne",
        -10.264875317863586
      ],
      [
        "registroval",
        -10.26578042965155
      ],
      [
        "▁posteľ",
        -10.266000372171217
      ],
      [
        "▁vojny",
        -10.266181931348903
      ],
      [
        "▁srdce",
        -10.266395333922944
      ],
      [
        "▁deťmi",
        -10.266460059807113
      ],
      [
        "ust",
        -10.266744483576408
      ],
      [
        "▁knihu",
        -10.266765284626882
      ],
      [
        "▁jedin",
        -10.26687112686616
      ],
      [
        "nym",
        -10.267154051961088
      ],
      [
        "▁chod",
        -10.267399504087624
      ],
      [
        "https",
        -10.26834084422131
      ],
      [
        "▁spo",
        -10.268470341676904
      ],
      [
        "▁všeobecn",
        -10.269267076920782
      ],
      [
        "ovia",
        -10.269686734717189
      ],
      [
        "xx",
        -10.26979245350634
      ],
      [
        "voliť",
        -10.27035218271649
      ],
      [
        "▁kariér",
        -10.27058065849132
      ],
      [
        "king",
        -10.270901470525102
      ],
      [
        "▁nechcel",
        -10.271690437734724
      ],
      [
        "▁popri",
        -10.27185739135668
      ],
      [
        "▁silu",
        -10.272803866686102
      ],
      [
        "▁pacientov",
        -10.273065722664464
      ],
      [
        "▁tlač",
        -10.27319662584995
      ],
      [
        "▁doklad",
        -10.273658116563729
      ],
      [
        "▁tradíci",
        -10.274285568065128
      ],
      [
        "▁stretnutia",
        -10.274843491638634
      ],
      [
        "▁väčší",
        -10.275005637733605
      ],
      [
        "set",
        -10.275437757330227
      ],
      [
        "pál",
        -10.275752048709656
      ],
      [
        "cer",
        -10.276493340250186
      ],
      [
        "enci",
        -10.27662593972646
      ],
      [
        "▁bab",
        -10.276716497536436
      ],
      [
        "nebudú",
        -10.277179400786736
      ],
      [
        "▁sami",
        -10.27737920144341
      ],
      [
        "▁prostriedkov",
        -10.277847564860432
      ],
      [
        "▁novom",
        -10.278009850233108
      ],
      [
        "▁trval",
        -10.278765606475154
      ],
      [
        "▁predstaviť",
        -10.278800195003583
      ],
      [
        "е",
        -10.27917171092879
      ],
      [
        "hlas",
        -10.279689271683107
      ],
      [
        "pin",
        -10.280247219939396
      ],
      [
        "▁pozemku",
        -10.280658766037387
      ],
      [
        "slov",
        -10.281118223667068
      ],
      [
        "verím",
        -10.28166134289826
      ],
      [
        "▁ostr",
        -10.281739013198573
      ],
      [
        "ně",
        -10.282325501896723
      ],
      [
        "dodal",
        -10.282514358660432
      ],
      [
        "▁videá",
        -10.28288394344237
      ],
      [
        "▁zle",
        -10.283107165908168
      ],
      [
        "▁návrat",
        -10.284619045586188
      ],
      [
        "▁teplo",
        -10.284906887557714
      ],
      [
        "▁úst",
        -10.285307598701362
      ],
      [
        "ovací",
        -10.28555743632004
      ],
      [
        "touto",
        -10.285645760302724
      ],
      [
        "▁zvierat",
        -10.285710931543674
      ],
      [
        "▁bratislavsk",
        -10.285822365607595
      ],
      [
        "▁dobr",
        -10.286254086633704
      ],
      [
        "nem",
        -10.287663530895612
      ],
      [
        "obj",
        -10.28876488437913
      ],
      [
        "koch",
        -10.289144884054016
      ],
      [
        "▁bratislavy",
        -10.289541101503334
      ],
      [
        "▁prieskum",
        -10.289712463555537
      ],
      [
        "▁nejde",
        -10.290089672129088
      ],
      [
        "▁hlavný",
        -10.290488453384285
      ],
      [
        "▁samostatn",
        -10.290532394720133
      ],
      [
        "▁cene",
        -10.290752104311142
      ],
      [
        "▁týždňa",
        -10.291057656907284
      ],
      [
        "eck",
        -10.29114484841505
      ],
      [
        "▁men",
        -10.292207265113143
      ],
      [
        "▁ben",
        -10.292590428158714
      ],
      [
        "▁hudobn",
        -10.292862537753464
      ],
      [
        "▁majetku",
        -10.293045996011143
      ],
      [
        "▁úvod",
        -10.293131812393645
      ],
      [
        "▁predpoklad",
        -10.293265991390932
      ],
      [
        "ohľadom",
        -10.293618291033612
      ],
      [
        "▁hmotnosť",
        -10.2945965287877
      ],
      [
        "▁del",
        -10.294690849475542
      ],
      [
        "čná",
        -10.294943166363703
      ],
      [
        "▁vedia",
        -10.29533561880248
      ],
      [
        "vel",
        -10.295373049360771
      ],
      [
        "decembra",
        -10.29566000074109
      ],
      [
        "get",
        -10.295878188655893
      ],
      [
        "▁podmienkach",
        -10.296216179428356
      ],
      [
        "▁cirkvi",
        -10.296420276797758
      ],
      [
        "ór",
        -10.297332720716447
      ],
      [
        "▁hodnotu",
        -10.297373468848722
      ],
      [
        "éri",
        -10.297707774615676
      ],
      [
        "▁výlet",
        -10.297750009052503
      ],
      [
        "▁pravdu",
        -10.297831298253673
      ],
      [
        "▁zápal",
        -10.298008630696147
      ],
      [
        "▁bytu",
        -10.29805304141688
      ],
      [
        "▁rodina",
        -10.298202968494587
      ],
      [
        "určená",
        -10.29820603191177
      ],
      [
        "tic",
        -10.299283807271308
      ],
      [
        "▁príklad",
        -10.299993709111884
      ],
      [
        "malých",
        -10.300061575476406
      ],
      [
        "▁krv",
        -10.30022600524019
      ],
      [
        "ted",
        -10.300269162898733
      ],
      [
        "▁fu",
        -10.300308706407751
      ],
      [
        "div",
        -10.300448933901794
      ],
      [
        "cky",
        -10.300473037413994
      ],
      [
        "▁organizácia",
        -10.300800175545554
      ],
      [
        "▁školstv",
        -10.301249048195888
      ],
      [
        "ndr",
        -10.301559064355112
      ],
      [
        "ráž",
        -10.301822353731794
      ],
      [
        "ral",
        -10.301871319074088
      ],
      [
        "bul",
        -10.302065276496498
      ],
      [
        "▁súťaži",
        -10.302368681636178
      ],
      [
        "zelen",
        -10.302898063894204
      ],
      [
        "▁strel",
        -10.302971400187875
      ],
      [
        "nemusíte",
        -10.303020429497767
      ],
      [
        "▁hlad",
        -10.303253388341322
      ],
      [
        "bež",
        -10.303649989830056
      ],
      [
        "ujúci",
        -10.303843336889082
      ],
      [
        "▁blok",
        -10.304335981725169
      ],
      [
        "▁skutočnosť",
        -10.304403739110144
      ],
      [
        "▁priam",
        -10.30492284756976
      ],
      [
        "áciu",
        -10.305237604457728
      ],
      [
        "▁dan",
        -10.30560433307516
      ],
      [
        "the",
        -10.305733644601816
      ],
      [
        "lož",
        -10.30595129363873
      ],
      [
        "▁schopnosti",
        -10.307116027846533
      ],
      [
        "bez",
        -10.30732722695828
      ],
      [
        "▁hviezd",
        -10.307367502843883
      ],
      [
        "▁banky",
        -10.307447377825229
      ],
      [
        "išlo",
        -10.30764653794388
      ],
      [
        "bri",
        -10.307698944541391
      ],
      [
        "ikov",
        -10.307847637701885
      ],
      [
        "▁rovnaké",
        -10.30786507685203
      ],
      [
        "▁boha",
        -10.307871499756388
      ],
      [
        "svetovej",
        -10.308130902597528
      ],
      [
        "▁extra",
        -10.308478235080113
      ],
      [
        "▁technológie",
        -10.308483054985468
      ],
      [
        "▁škoda",
        -10.308970734567607
      ],
      [
        "hlav",
        -10.309096295761456
      ],
      [
        "▁finančn",
        -10.309295510826132
      ],
      [
        "ukázať",
        -10.30964145204369
      ],
      [
        "▁pripomína",
        -10.310351896161428
      ],
      [
        "platiť",
        -10.310771742477742
      ],
      [
        "▁hotela",
        -10.311264188160864
      ],
      [
        "▁vzťahy",
        -10.31128058948602
      ],
      [
        "°",
        -10.312270736179244
      ],
      [
        "▁vlád",
        -10.31240420631766
      ],
      [
        "▁skúsenosť",
        -10.312679336179054
      ],
      [
        "hal",
        -10.313008221247063
      ],
      [
        "det",
        -10.31321513873413
      ],
      [
        "▁zahŕňa",
        -10.313292641323642
      ],
      [
        "dat",
        -10.313675523313892
      ],
      [
        "date",
        -10.314691953510966
      ],
      [
        "▁trvá",
        -10.314770799202718
      ],
      [
        "▁vláda",
        -10.314952528892128
      ],
      [
        "▁priestoroch",
        -10.314954722662744
      ],
      [
        "▁bra",
        -10.315171020850643
      ],
      [
        "▁diela",
        -10.31535946201979
      ],
      [
        "▁čiž",
        -10.315556650084169
      ],
      [
        "▁vzdelávania",
        -10.31561801931309
      ],
      [
        "▁obc",
        -10.316770414959349
      ],
      [
        "▁dochádza",
        -10.317470567687018
      ],
      [
        "▁podnik",
        -10.317517101168873
      ],
      [
        "▁bližšie",
        -10.31756914284163
      ],
      [
        "▁získate",
        -10.31822956843276
      ],
      [
        "kové",
        -10.31826380408929
      ],
      [
        "▁windows",
        -10.31829840762569
      ],
      [
        "▁potvrdil",
        -10.31877479337508
      ],
      [
        "▁malá",
        -10.318846348662593
      ],
      [
        "▁hodnotenie",
        -10.319329346318058
      ],
      [
        "nika",
        -10.319506930734976
      ],
      [
        "▁multi",
        -10.320233930673826
      ],
      [
        "predaj",
        -10.320929338823102
      ],
      [
        "▁stop",
        -10.321266830452643
      ],
      [
        "▁budov",
        -10.321337714986576
      ],
      [
        "▁kvalitný",
        -10.322243961110289
      ],
      [
        "▁doba",
        -10.322956909125788
      ],
      [
        "▁dali",
        -10.323113942752997
      ],
      [
        "▁považuje",
        -10.32336058118667
      ],
      [
        "▁ponúkajú",
        -10.32360498840618
      ],
      [
        "nedávno",
        -10.323820611262098
      ],
      [
        "účelom",
        -10.32412847424753
      ],
      [
        "▁pridal",
        -10.324391170260828
      ],
      [
        "▁tomáš",
        -10.324474168021052
      ],
      [
        "českej",
        -10.324521441695529
      ],
      [
        "▁japonsk",
        -10.32474356378376
      ],
      [
        "▁bytov",
        -10.325414905644102
      ],
      [
        "her",
        -10.32552775278208
      ],
      [
        "dáva",
        -10.325597899502265
      ],
      [
        "▁programov",
        -10.325720843094464
      ],
      [
        "porovnaní",
        -10.3258117895506
      ],
      [
        "▁verejnosti",
        -10.326031234256105
      ],
      [
        "era",
        -10.32610947986272
      ],
      [
        "▁gi",
        -10.32613286996179
      ],
      [
        "iku",
        -10.326292711915013
      ],
      [
        "štátnej",
        -10.326392227286876
      ],
      [
        "▁kole",
        -10.3266388504209
      ],
      [
        "▁druhého",
        -10.326685144650604
      ],
      [
        "▁vel",
        -10.32687661936411
      ],
      [
        "▁funkciu",
        -10.327055834471292
      ],
      [
        "začiatkom",
        -10.327081035391332
      ],
      [
        "▁milan",
        -10.32720714782743
      ],
      [
        "chyt",
        -10.327248363468106
      ],
      [
        "išli",
        -10.327670884418216
      ],
      [
        "▁miestach",
        -10.328351028628688
      ],
      [
        "▁pokus",
        -10.328442406700823
      ],
      [
        "▁kože",
        -10.328836108017212
      ],
      [
        "▁žiaci",
        -10.3288579066206
      ],
      [
        "▁balkón",
        -10.328948094320005
      ],
      [
        "▁šaty",
        -10.329527449667037
      ],
      [
        "byt",
        -10.330680480965018
      ],
      [
        "▁mikro",
        -10.330939531576428
      ],
      [
        "dier",
        -10.331730039791672
      ],
      [
        "▁systémov",
        -10.33173609982525
      ],
      [
        "▁str",
        -10.331846582182392
      ],
      [
        "bar",
        -10.332001357773326
      ],
      [
        "▁robia",
        -10.332025055933665
      ],
      [
        "neskorší",
        -10.332392995071432
      ],
      [
        "▁biela",
        -10.332613426027862
      ],
      [
        "▁spoločné",
        -10.332969826039143
      ],
      [
        "▁budúc",
        -10.333020908167608
      ],
      [
        "▁hostí",
        -10.333119172915122
      ],
      [
        "ieho",
        -10.33330297140597
      ],
      [
        "▁obsahujú",
        -10.333424770333927
      ],
      [
        "▁anglick",
        -10.33503766738287
      ],
      [
        "tar",
        -10.335315014895444
      ],
      [
        "▁súdu",
        -10.335351808917
      ],
      [
        "tár",
        -10.335658923327918
      ],
      [
        "lac",
        -10.335670966702544
      ],
      [
        "účasť",
        -10.33702896850538
      ],
      [
        "▁telesn",
        -10.337260222381255
      ],
      [
        "ence",
        -10.337348573564526
      ],
      [
        "▁variant",
        -10.337477700873938
      ],
      [
        "ideálny",
        -10.337737001754912
      ],
      [
        "▁vnútri",
        -10.338301093502675
      ],
      [
        "age",
        -10.338515400206528
      ],
      [
        "not",
        -10.338580907936937
      ],
      [
        "štyroch",
        -10.338595059084252
      ],
      [
        "dor",
        -10.338947489656158
      ],
      [
        "▁odpad",
        -10.338958078973569
      ],
      [
        "veriť",
        -10.339025853270874
      ],
      [
        "dob",
        -10.339173825639078
      ],
      [
        "kup",
        -10.33926562219844
      ],
      [
        "▁počítač",
        -10.339343269874478
      ],
      [
        "▁stránok",
        -10.339890219709682
      ],
      [
        "list",
        -10.340122692222144
      ],
      [
        "ňu",
        -10.340305110321657
      ],
      [
        "▁techniky",
        -10.34078940695938
      ],
      [
        "▁recept",
        -10.340915801392308
      ],
      [
        "▁armád",
        -10.34092532716944
      ],
      [
        "cka",
        -10.340968533366372
      ],
      [
        "noh",
        -10.34127510836081
      ],
      [
        "▁využitie",
        -10.341520665333064
      ],
      [
        "každému",
        -10.341918861305754
      ],
      [
        "▁západ",
        -10.342113414150418
      ],
      [
        "áno",
        -10.342272320128371
      ],
      [
        "▁rakovin",
        -10.342307574084098
      ],
      [
        "▁farbe",
        -10.34256313001665
      ],
      [
        "▁pôvodne",
        -10.342576126814691
      ],
      [
        "našim",
        -10.342657147989003
      ],
      [
        "▁zásad",
        -10.343296271366931
      ],
      [
        "▁tráv",
        -10.343401211534935
      ],
      [
        "▁mení",
        -10.34387921761526
      ],
      [
        "▁sídlo",
        -10.343913987977208
      ],
      [
        "▁doplnky",
        -10.343981360473109
      ],
      [
        "▁zodpovednosť",
        -10.344507946974373
      ],
      [
        "▁zabezpečuje",
        -10.344726461571812
      ],
      [
        "pit",
        -10.34548914475342
      ],
      [
        "▁pekné",
        -10.345737404586712
      ],
      [
        "▁žije",
        -10.346673604099168
      ],
      [
        "stol",
        -10.347353499854222
      ],
      [
        "▁muži",
        -10.347956790311391
      ],
      [
        "▁smrť",
        -10.348101291545238
      ],
      [
        "pust",
        -10.348365137126898
      ],
      [
        "▁black",
        -10.34876913683864
      ],
      [
        "▁koncom",
        -10.349027960482475
      ],
      [
        "▁kvalita",
        -10.34945081616064
      ],
      [
        "▁výkonu",
        -10.349723514708236
      ],
      [
        "pád",
        -10.349779239380355
      ],
      [
        "▁krás",
        -10.34992834638216
      ],
      [
        "▁reakci",
        -10.350065938320688
      ],
      [
        "zistiť",
        -10.35054978067415
      ],
      [
        "▁obr",
        -10.351307267158989
      ],
      [
        "▁komisie",
        -10.351950399723666
      ],
      [
        "▁vozidiel",
        -10.351981447397044
      ],
      [
        "▁prevádzkovateľ",
        -10.352494875518945
      ],
      [
        "▁nejako",
        -10.352751159429634
      ],
      [
        "nechajte",
        -10.354044437637784
      ],
      [
        "prijal",
        -10.354181859245791
      ],
      [
        "▁svojm",
        -10.354231123802514
      ],
      [
        "ľov",
        -10.35464764379911
      ],
      [
        "▁hodinu",
        -10.35492853283661
      ],
      [
        "vydal",
        -10.35505117179885
      ],
      [
        "▁mer",
        -10.355143941619588
      ],
      [
        "▁učiteľ",
        -10.355670123169412
      ],
      [
        "▁sociálnej",
        -10.355784674080711
      ],
      [
        "▁príjem",
        -10.355813077852378
      ],
      [
        "vami",
        -10.356258270334571
      ],
      [
        "▁údaj",
        -10.356348699235864
      ],
      [
        "ers",
        -10.3565955959909
      ],
      [
        "put",
        -10.356699419283975
      ],
      [
        "our",
        -10.35672640512944
      ],
      [
        "▁návod",
        -10.35682082753024
      ],
      [
        "▁mesiace",
        -10.357322011970828
      ],
      [
        "rek",
        -10.35738242379982
      ],
      [
        "▁skladom",
        -10.357438951947913
      ],
      [
        "▁nádej",
        -10.357455863178371
      ],
      [
        "▁spracovanie",
        -10.35837220987075
      ],
      [
        "▁slnečn",
        -10.358661877687354
      ],
      [
        "▁chor",
        -10.359154241463465
      ],
      [
        "▁dôkaz",
        -10.35923403016828
      ],
      [
        "▁účastník",
        -10.359438113299714
      ],
      [
        "viacero",
        -10.359926864095362
      ],
      [
        "▁zvuk",
        -10.360207673953356
      ],
      [
        "▁zomrel",
        -10.360570157657476
      ],
      [
        "ind",
        -10.360970414480628
      ],
      [
        "▁športov",
        -10.36127418224453
      ],
      [
        "▁stavby",
        -10.362051853997391
      ],
      [
        "▁šéf",
        -10.362158606395887
      ],
      [
        "šlite",
        -10.362260674306668
      ],
      [
        "chrániť",
        -10.362827898282127
      ],
      [
        "níc",
        -10.363029884003236
      ],
      [
        "▁more",
        -10.363250728459851
      ],
      [
        "ovateľ",
        -10.363256136222278
      ],
      [
        "▁predstavil",
        -10.36341638554824
      ],
      [
        "▁nápad",
        -10.363705998639256
      ],
      [
        "▁ples",
        -10.364033428146264
      ],
      [
        "▁prirodzen",
        -10.364116485788418
      ],
      [
        "vidíme",
        -10.364985089209869
      ],
      [
        "▁dát",
        -10.365680635343873
      ],
      [
        "▁verejnosť",
        -10.36574085222896
      ],
      [
        "▁zber",
        -10.36609027811152
      ],
      [
        "▁budovy",
        -10.366499949020582
      ],
      [
        "▁stará",
        -10.366881455910075
      ],
      [
        "▁rovno",
        -10.367976194387564
      ],
      [
        "dra",
        -10.368586222912764
      ],
      [
        "▁okná",
        -10.369031527651648
      ],
      [
        "▁citliv",
        -10.369049291280088
      ],
      [
        "▁rodinn",
        -10.369235082993072
      ],
      [
        "nár",
        -10.36933072527276
      ],
      [
        "▁internete",
        -10.369382132250696
      ],
      [
        "▁lepší",
        -10.369414116946832
      ],
      [
        "▁kus",
        -10.369750724442069
      ],
      [
        "bus",
        -10.369841282720882
      ],
      [
        "▁pes",
        -10.36985558467016
      ],
      [
        "dáme",
        -10.36986565351339
      ],
      [
        "ľuďmi",
        -10.370059191396358
      ],
      [
        "shi",
        -10.370098286688783
      ],
      [
        "náš",
        -10.370763536996254
      ],
      [
        "kam",
        -10.370846396959667
      ],
      [
        "riad",
        -10.370989758611442
      ],
      [
        "▁dis",
        -10.370994936311806
      ],
      [
        "▁prakticky",
        -10.37111954078213
      ],
      [
        "rin",
        -10.371160860666176
      ],
      [
        "▁karty",
        -10.37138660962656
      ],
      [
        "▁vzduch",
        -10.371391533697984
      ],
      [
        "kvap",
        -10.371548524763035
      ],
      [
        "▁kríz",
        -10.371588140283686
      ],
      [
        "▁art",
        -10.371595307363933
      ],
      [
        "tón",
        -10.371857350697924
      ],
      [
        "vašom",
        -10.371922163343626
      ],
      [
        "zor",
        -10.37224483429812
      ],
      [
        "mieša",
        -10.372367551257923
      ],
      [
        "▁obal",
        -10.37238972637178
      ],
      [
        "▁dlhodob",
        -10.372602560118985
      ],
      [
        "▁manažér",
        -10.37269769379028
      ],
      [
        "▁zmien",
        -10.372837147822413
      ],
      [
        "▁hotels",
        -10.372839281785238
      ],
      [
        "▁all",
        -10.373014612424708
      ],
      [
        "char",
        -10.373031264090551
      ],
      [
        "▁štvor",
        -10.373106888301567
      ],
      [
        "▁panel",
        -10.373135042977507
      ],
      [
        "ista",
        -10.373437311384375
      ],
      [
        "verejnej",
        -10.373642731436483
      ],
      [
        "▁dokonale",
        -10.373770180186233
      ],
      [
        "▁existujú",
        -10.373933894263864
      ],
      [
        "▁obvod",
        -10.374054284457255
      ],
      [
        "▁raj",
        -10.37430404823778
      ],
      [
        "▁záruk",
        -10.374397907739937
      ],
      [
        "hrali",
        -10.374472085011528
      ],
      [
        "myslieť",
        -10.374984870576696
      ],
      [
        "▁vedľa",
        -10.37531205132593
      ],
      [
        "▁uskutoční",
        -10.375566985857482
      ],
      [
        "▁sociálne",
        -10.375727260827428
      ],
      [
        "objednať",
        -10.376307161248452
      ],
      [
        "▁možn",
        -10.3763901658622
      ],
      [
        "▁jednoduchý",
        -10.376751494180624
      ],
      [
        "kedy",
        -10.377070869511291
      ],
      [
        "▁jednoduch",
        -10.37756700746754
      ],
      [
        "ická",
        -10.377673504756306
      ],
      [
        "▁píše",
        -10.37772321257862
      ],
      [
        "▁elektro",
        -10.37775453908188
      ],
      [
        "icky",
        -10.377767359513848
      ],
      [
        "▁normálne",
        -10.37784315155817
      ],
      [
        "▁úpln",
        -10.377912449281828
      ],
      [
        "žili",
        -10.377971459251828
      ],
      [
        "▁bel",
        -10.37801253971442
      ],
      [
        "ric",
        -10.37918455188027
      ],
      [
        "▁potraviny",
        -10.379565001949734
      ],
      [
        "prípravu",
        -10.379773277619162
      ],
      [
        "príjemné",
        -10.380029107429683
      ],
      [
        "gb",
        -10.380770612618909
      ],
      [
        "mnou",
        -10.382044844907554
      ],
      [
        "▁mikuláš",
        -10.382497990367291
      ],
      [
        "▁strach",
        -10.38384872129623
      ],
      [
        "▁kryt",
        -10.383883456812342
      ],
      [
        "pek",
        -10.38396480019663
      ],
      [
        "▁pozemok",
        -10.38413746197346
      ],
      [
        "▁bystrica",
        -10.3842432674176
      ],
      [
        "▁ochrana",
        -10.384453618232715
      ],
      [
        "▁prírodné",
        -10.38455360687656
      ],
      [
        "▁filmu",
        -10.38459277476118
      ],
      [
        "kovej",
        -10.385096388567248
      ],
      [
        "▁ďaleko",
        -10.385289722464332
      ],
      [
        "ostí",
        -10.38561964756225
      ],
      [
        "▁chorob",
        -10.385875168401762
      ],
      [
        "▁používanie",
        -10.385944343425331
      ],
      [
        "▁dostatočne",
        -10.38612272401286
      ],
      [
        "▁energiu",
        -10.386390922115792
      ],
      [
        "▁farieb",
        -10.387008047437654
      ],
      [
        "rik",
        -10.388660698938908
      ],
      [
        "red",
        -10.38895702288179
      ],
      [
        "▁podob",
        -10.388961072568426
      ],
      [
        "▁šanc",
        -10.389104664672947
      ],
      [
        "európskeho",
        -10.389348856443965
      ],
      [
        "din",
        -10.389974505363446
      ],
      [
        "▁vlastných",
        -10.390008783883276
      ],
      [
        "ety",
        -10.390135518928806
      ],
      [
        "eur",
        -10.390325746296696
      ],
      [
        "inými",
        -10.39039672358567
      ],
      [
        "▁dole",
        -10.39065263284762
      ],
      [
        "▁zákonov",
        -10.39080712338695
      ],
      [
        "▁nálad",
        -10.391163231216758
      ],
      [
        "▁stránkach",
        -10.391256769322515
      ],
      [
        "▁rizik",
        -10.391335718632655
      ],
      [
        "car",
        -10.392023917672711
      ],
      [
        "▁dievčatá",
        -10.39210044385293
      ],
      [
        "▁osud",
        -10.392552710816606
      ],
      [
        "jediný",
        -10.392785580090433
      ],
      [
        "vidím",
        -10.393081563038947
      ],
      [
        "▁teba",
        -10.393667060256892
      ],
      [
        "danej",
        -10.394016305062026
      ],
      [
        "pas",
        -10.394102402662392
      ],
      [
        "▁vln",
        -10.394316925733529
      ],
      [
        "▁prizna",
        -10.394392332180288
      ],
      [
        "▁španielsk",
        -10.394650509025093
      ],
      [
        "veľkým",
        -10.394848362032656
      ],
      [
        "▁plné",
        -10.395058026001037
      ],
      [
        "▁košiciach",
        -10.395165415814947
      ],
      [
        "▁hre",
        -10.395947070294854
      ],
      [
        "stat",
        -10.396068617774551
      ],
      [
        "mailom",
        -10.396786128225424
      ],
      [
        "šťastie",
        -10.39683911937847
      ],
      [
        "pic",
        -10.396901809661298
      ],
      [
        "správny",
        -10.39699875373396
      ],
      [
        "teľný",
        -10.397125005513262
      ],
      [
        "▁nitra",
        -10.397200225234286
      ],
      [
        "▁juraj",
        -10.397392735544578
      ],
      [
        "náď",
        -10.397617500633531
      ],
      [
        "čný",
        -10.397949381852504
      ],
      [
        "▁obsahom",
        -10.39817338830246
      ],
      [
        "▁nákladov",
        -10.398245832304577
      ],
      [
        "▁vysoká",
        -10.398586068909548
      ],
      [
        "▁set",
        -10.399397711034403
      ],
      [
        "▁triedy",
        -10.399554151127758
      ],
      [
        "dostatok",
        -10.399656609917974
      ],
      [
        "lieta",
        -10.400040046658996
      ],
      [
        "los",
        -10.400071291520812
      ],
      [
        "▁časom",
        -10.400391090407416
      ],
      [
        "▁uhl",
        -10.400447539622622
      ],
      [
        "▁hlavu",
        -10.400874910907174
      ],
      [
        "▁fotk",
        -10.40139443900014
      ],
      [
        "▁prvky",
        -10.401608214524485
      ],
      [
        "voľný",
        -10.401665471161598
      ],
      [
        "▁aká",
        -10.401773597808733
      ],
      [
        "▁metód",
        -10.402024371620936
      ],
      [
        "viedli",
        -10.402530023548817
      ],
      [
        "dokázal",
        -10.4025730507861
      ],
      [
        "inej",
        -10.402682160537148
      ],
      [
        "org",
        -10.402711813549564
      ],
      [
        "▁nim",
        -10.402936433092446
      ],
      [
        "▁pracovný",
        -10.402980748555212
      ],
      [
        "úlohy",
        -10.403316455247593
      ],
      [
        "▁hodin",
        -10.403411390193993
      ],
      [
        "▁vybavenie",
        -10.403416584728856
      ],
      [
        "bel",
        -10.40350507378083
      ],
      [
        "▁hodnota",
        -10.403510478936395
      ],
      [
        "finančné",
        -10.40417442918831
      ],
      [
        "▁stranu",
        -10.40430365305871
      ],
      [
        "▁výraz",
        -10.40449408114122
      ],
      [
        "▁získa",
        -10.404546781558189
      ],
      [
        "stiev",
        -10.404919131986436
      ],
      [
        "▁tur",
        -10.405220290364737
      ],
      [
        "▁menu",
        -10.405443655348662
      ],
      [
        "doslova",
        -10.40547461374835
      ],
      [
        "▁partner",
        -10.40547960334776
      ],
      [
        "členovia",
        -10.40560200925202
      ],
      [
        "▁terén",
        -10.405862958988058
      ],
      [
        "▁ivan",
        -10.405945243535164
      ],
      [
        "▁dobrú",
        -10.406020304957776
      ],
      [
        "▁ústav",
        -10.406269993337125
      ],
      [
        "▁kontrolu",
        -10.40707782073824
      ],
      [
        "▁stali",
        -10.407109963805835
      ],
      [
        "▁vyšší",
        -10.407402514598678
      ],
      [
        "ačný",
        -10.407923497676968
      ],
      [
        "▁dia",
        -10.408334457127111
      ],
      [
        "▁nechcem",
        -10.40860398699868
      ],
      [
        "▁čitateľ",
        -10.40864309280343
      ],
      [
        "▁zostáva",
        -10.408749395958672
      ],
      [
        "▁tém",
        -10.409330944373613
      ],
      [
        "▁prenájom",
        -10.409466546691403
      ],
      [
        "▁zahraničí",
        -10.409805754895263
      ],
      [
        "nejakú",
        -10.409816466114416
      ],
      [
        "▁nebudem",
        -10.409969701209524
      ],
      [
        "▁získava",
        -10.410173312608558
      ],
      [
        "▁usb",
        -10.410316978940116
      ],
      [
        "▁mac",
        -10.41051251500122
      ],
      [
        "▁cr",
        -10.410649270140286
      ],
      [
        "▁srdca",
        -10.41098162557544
      ],
      [
        "nil",
        -10.411092308213124
      ],
      [
        "▁bezpečnosti",
        -10.41110425427962
      ],
      [
        "▁hladin",
        -10.411160498590254
      ],
      [
        "ľah",
        -10.41151166931469
      ],
      [
        "▁krátky",
        -10.412097638652904
      ],
      [
        "▁závislosti",
        -10.41251915557861
      ],
      [
        "’",
        -10.41265176454232
      ],
      [
        "▁stres",
        -10.413519081293195
      ],
      [
        "najlepších",
        -10.414248965675815
      ],
      [
        "▁ihneď",
        -10.414483040042304
      ],
      [
        "▁takým",
        -10.415234731104146
      ],
      [
        "▁zápis",
        -10.415430244427592
      ],
      [
        "▁mlieko",
        -10.415459475092922
      ],
      [
        "pojiť",
        -10.415855881973467
      ],
      [
        "▁potravín",
        -10.415975699482404
      ],
      [
        "▁radu",
        -10.41610451137152
      ],
      [
        "▁dostáva",
        -10.416179524300626
      ],
      [
        "▁bohu",
        -10.416502794236214
      ],
      [
        "▁hľadať",
        -10.416623710897722
      ],
      [
        "sezóny",
        -10.41692827285226
      ],
      [
        "rodinný",
        -10.417445892444157
      ],
      [
        "▁plyn",
        -10.417823764480746
      ],
      [
        "▁dub",
        -10.417910668053006
      ],
      [
        "▁poskytnúť",
        -10.418059813973898
      ],
      [
        "ických",
        -10.4186578638891
      ],
      [
        "▁hĺbk",
        -10.418796874780384
      ],
      [
        "▁zvýšen",
        -10.418935943258765
      ],
      [
        "ple",
        -10.41897482254949
      ],
      [
        "hrať",
        -10.419038918280862
      ],
      [
        "▁zvýšenie",
        -10.41921503488866
      ],
      [
        "poslednom",
        -10.419632764115091
      ],
      [
        "▁výzv",
        -10.420583607501491
      ],
      [
        "▁dala",
        -10.420599355586202
      ],
      [
        "▁apartmán",
        -10.421115324998494
      ],
      [
        "▁uvedených",
        -10.421374209705167
      ],
      [
        "cami",
        -10.421634488374696
      ],
      [
        "tímu",
        -10.42192609648844
      ],
      [
        "▁podpis",
        -10.421994560139938
      ],
      [
        "▁ľud",
        -10.42204190071494
      ],
      [
        "vop",
        -10.422180697192791
      ],
      [
        "▁zeme",
        -10.422383124303412
      ],
      [
        "▁parku",
        -10.42250800530342
      ],
      [
        "▁tábor",
        -10.422760040236872
      ],
      [
        "šancu",
        -10.422817883197457
      ],
      [
        "bežné",
        -10.423135463704837
      ],
      [
        "dan",
        -10.42313910698679
      ],
      [
        "▁rúk",
        -10.423245471752642
      ],
      [
        "volať",
        -10.423535204347091
      ],
      [
        "▁tre",
        -10.423761672073416
      ],
      [
        "niesol",
        -10.424065680257632
      ],
      [
        "ľahké",
        -10.42407869855874
      ],
      [
        "enka",
        -10.4247133649732
      ],
      [
        "▁obed",
        -10.424870022246427
      ],
      [
        "▁tvrdí",
        -10.425086019526598
      ],
      [
        "▁strom",
        -10.425398425179688
      ],
      [
        "▁silný",
        -10.425589779141747
      ],
      [
        "▁prístroj",
        -10.425650497920564
      ],
      [
        "▁akým",
        -10.425707032707388
      ],
      [
        "prišla",
        -10.425803629101935
      ],
      [
        "februára",
        -10.425954903667272
      ],
      [
        "kový",
        -10.42607308470598
      ],
      [
        "▁našli",
        -10.426163140274149
      ],
      [
        "farb",
        -10.426471143002694
      ],
      [
        "▁skal",
        -10.427127524760104
      ],
      [
        "▁wc",
        -10.42731715143749
      ],
      [
        "čím",
        -10.42751968852025
      ],
      [
        "▁dlhodobo",
        -10.427977233796652
      ],
      [
        "dĺžka",
        -10.427986591990615
      ],
      [
        "п",
        -10.42864729149515
      ],
      [
        "ró",
        -10.428736860119567
      ],
      [
        "nuté",
        -10.429025455732928
      ],
      [
        "è",
        -10.429058306708486
      ],
      [
        "čakal",
        -10.429307184415835
      ],
      [
        "▁čom",
        -10.429329647380753
      ],
      [
        "▁vyhral",
        -10.429677312154515
      ],
      [
        "▁softvér",
        -10.429771899037378
      ],
      [
        "▁signál",
        -10.43022700018858
      ],
      [
        "▁svetla",
        -10.430628796397224
      ],
      [
        "situáciu",
        -10.43064318236466
      ],
      [
        "najneskôr",
        -10.43076290981518
      ],
      [
        "▁narodil",
        -10.430848875663756
      ],
      [
        "▁stredu",
        -10.43090497606531
      ],
      [
        "▁nábytok",
        -10.430931795256177
      ],
      [
        "▁red",
        -10.431129902887138
      ],
      [
        "▁mód",
        -10.4320686949967
      ],
      [
        "▁tel",
        -10.432996687712755
      ],
      [
        "▁vedenie",
        -10.4332283806754
      ],
      [
        "▁štátov",
        -10.43333147933347
      ],
      [
        "▁strih",
        -10.433717520818515
      ],
      [
        "▁zdravia",
        -10.433887527063078
      ],
      [
        "▁obchodné",
        -10.434150992931952
      ],
      [
        "▁teploty",
        -10.434478441798865
      ],
      [
        "▁zamestnávateľ",
        -10.434501833385903
      ],
      [
        "▁biele",
        -10.434565702478872
      ],
      [
        "cieho",
        -10.43474126174834
      ],
      [
        "verejného",
        -10.434921690952123
      ],
      [
        "▁vznikl",
        -10.435159185630008
      ],
      [
        "▁ťažk",
        -10.435584933728638
      ],
      [
        "▁výrobca",
        -10.436022216505156
      ],
      [
        "▁nehnuteľnosti",
        -10.436141841426243
      ],
      [
[...]
